/**
  ******************************************************************************
  * @file    modelstrojnegaucenja_data_params.c
  * @author  AST Embedded Analytics Research Platform
  * @date    Wed Jul 12 15:49:18 2023
  * @brief   AI Tool Automatic Code Generator for Embedded NN computing
  ******************************************************************************
  * Copyright (c) 2023 STMicroelectronics.
  * All rights reserved.
  *
  * This software is licensed under terms that can be found in the LICENSE file
  * in the root directory of this software component.
  * If no LICENSE file comes with this software, it is provided AS-IS.
  ******************************************************************************
  */

#include "modelstrojnegaucenja_data_params.h"


/**  Activations Section  ****************************************************/
ai_handle g_modelstrojnegaucenja_activations_table[1 + 2] = {
  AI_HANDLE_PTR(AI_MAGIC_MARKER),
  AI_HANDLE_PTR(NULL),
  AI_HANDLE_PTR(AI_MAGIC_MARKER),
};




/**  Weights Section  ********************************************************/
AI_ALIGNED(32)
const ai_u64 s_modelstrojnegaucenja_weights_array_u64[206] = {
  0x3eb5002ac3c86de0U, 0x201003e973319U, 0xbfb27bde001f372fU, 0xc09ab9e5c0b0fc74U,
  0x406067903eb2ae1fU, 0x2010040240865U, 0x0U, 0x46118e0046118e00U,
  0x46118e0000000000U, 0x46118e0000000000U, 0x0U, 0x46118e00U,
  0x46118e00U, 0x0U, 0x46118e00U, 0x46118e0046118e00U,
  0x46118e0000000000U, 0x46118e00U, 0x0U, 0x46118e0046118e00U,
  0x46118e00U, 0x46118e0045918e00U, 0x46118e0046118e00U, 0x46118e0046118e00U,
  0x46118e0046118e00U, 0x46118e0046118e00U, 0x46118e0046118e00U, 0x46118e0046118e00U,
  0x46118e0046118e00U, 0x8000000046118e00U, 0x8000000080000000U, 0x8000000080000000U,
  0xc6118e00c6118e00U, 0xc6118e00c6118e00U, 0xc6118e00c6118e00U, 0xc6118e00c6118e00U,
  0xc6118e00c6118e00U, 0xc6118e00c6118e00U, 0xc6118e00c6118e00U, 0x8000000080000000U,
  0xc6118e0080000000U, 0xc6118e00c6118e00U, 0xc6118e00c6118e00U, 0x80000000c6118e00U,
  0xc6118e0080000000U, 0xc6118e00c5918e00U, 0xc6118e00c6118e00U, 0x8000000080000000U,
  0x80000000c6118e00U, 0x8000000080000000U, 0x8000000080000000U, 0x80000000c6118e00U,
  0x8000000080000000U, 0x8000000080000000U, 0x8000000080000000U, 0xc6118e00c6118e00U,
  0xc6118e00c6118e00U, 0xbe17736ebe17736eU, 0xbe17736ebe17736eU, 0xbe17736ebe17736eU,
  0xbe17736ebe17736eU, 0xbe17736ebe17736eU, 0xbe17736ebe17736eU, 0xbe17736ebe17736eU,
  0xbe17736ebe17736eU, 0xbe17736ebe17736eU, 0xbe17736ebe17736eU, 0xbe17736ebe17736eU,
  0xbe17736ebd97736eU, 0xbe17736ebe17736eU, 0xbe17736ebe17736eU, 0xbe17736ebe17736eU,
  0x3e17736ebe17736eU, 0x3e17736e3e17736eU, 0x3e17736e3e17736eU, 0x3e17736e3e17736eU,
  0x3e17736e3e17736eU, 0x3e17736e3e17736eU, 0x3e17736e3e17736eU, 0x3e17736e3e17736eU,
  0x3e17736e3e17736eU, 0x3e17736e3e17736eU, 0x3e17736e3e17736eU, 0x3e17736e3e17736eU,
  0x3e17736e3e17736eU, 0x3e17736e3e17736eU, 0x3e17736e3e17736eU, 0x3d97736e3e17736eU,
  0x0U, 0x0U, 0x0U, 0x0U,
  0x0U, 0x0U, 0x0U, 0x0U,
  0x3e3a66023e3a6602U, 0x3e3a66023e3a6602U, 0x3e3a6602U, 0x3e3a660200000000U,
  0x0U, 0x0U, 0x0U, 0x0U,
  0x0U, 0x3e3a660200000000U, 0x3e3a66023e3a6602U, 0x3e3a6602U,
  0x0U, 0x0U, 0x3e3a66023e3a6602U, 0x3e3a6602U,
  0x0U, 0x3e3a66023e3a6602U, 0x3e3a6602U, 0x3e3a66023e3a6602U,
  0x3e3a66023e3a6602U, 0x3e3a66023e3a6602U, 0x3e3a66023e3a6602U, 0x3e3a66023e3a6602U,
  0x3e3a66023e3a6602U, 0x3e3a66023e3a6602U, 0x0U, 0xbe3a66023e3a6602U,
  0xbe3a6602be3a6602U, 0xbe3a6602be3a6602U, 0xbe3a6602be3a6602U, 0xbe3a6602be3a6602U,
  0xbe3a6602be3a6602U, 0xbe3a6602be3a6602U, 0xbe3a6602be3a6602U, 0xbe3a6602be3a6602U,
  0xbe3a6602be3a6602U, 0xbe3a6602be3a6602U, 0xbe3a6602be3a6602U, 0xbe3a6602be3a6602U,
  0xbe3a6602be3a6602U, 0xbe3a6602be3a6602U, 0xbe3a6602be3a6602U, 0xbf12f799bf12f799U,
  0xbf12f798bf12f79bU, 0xbf12f79abf12f798U, 0xbf12f79bbf12f799U, 0xbf12f798bf12f799U,
  0xbf12f796bf12f795U, 0xbf12f798bf12f79cU, 0xbf12f79cbf12f797U, 0xbf12f797bf12f79bU,
  0xbf12f79abf12f79cU, 0xbf12f79bbf12f79dU, 0xbf12f798bf12f79aU, 0xbf12f79ebf12f79eU,
  0xbf12f79cbf12f79aU, 0xbf12f79dbf12f798U, 0xbf12f79bbf12f798U, 0xbf12f79cbf12f79bU,
  0xbf12f799bf12f79bU, 0xbf12f79cbf12f79cU, 0xbf12f79bbf12f79bU, 0xbf12f79bbf12f79bU,
  0xbf12f79abf12f79cU, 0xbf12f792bf12f79cU, 0xbf00c595bf12f78cU, 0xbe8858b7be872adaU,
  0xbef97aeebeb246d0U, 0xbf105762bf11b2eeU, 0xbf10f0a2bf0df522U, 0xbf11a9bbbf0f3b68U,
  0xbf125a9abf129da5U, 0xbf129978bf122c70U, 0xbf12deacbf12c1a0U, 0xbf11733fbf126c14U,
  0xbee9a970bf0b2fc2U, 0xbf0e90bbbf088650U, 0xbf11dea2bf10957dU, 0xbf1093a9bf0f97c2U,
  0xbee3f5fdbf0f1218U, 0xbf0da565bef9ef58U, 0xbf10c88bbf114d46U, 0xbf0e0615bf11740aU,
  0xbefad278beb9cabdU, 0xbeefaac8bf0fb45bU, 0xbf062a12beb27b1aU, 0xbf077a78beff57fcU,
  0xbe28cac0bf0e9b0eU, 0xbeb01c8bbea0770dU, 0xbedd4eb1beb45b0dU, 0xbefd640abf051dd8U,
  0xbf0f6231bf0ca018U, 0xbf0e41babf0ff3d7U, 0xbeaa0def3f00bd64U, 0xbc31edaabe5cfd07U,
  0xbe64f87c3c9126f9U, 0x3f344cf8bec7dc16U, 0x3f0fd6ae3e87d371U, 0xbe74a3a13e3bb8ecU,
  0x3ecd8ad3bdc9bd73U, 0xbee4352dbeaaff23U, 0x3e17d6823ecc8f10U, 0x3f19f198bdcc03d6U,
  0x3d039ca4be644259U, 0x3e870d5f3f5aa27cU, 0x3d97b899bde62a7aU, 0x3e2eca89be31306fU,
  0x3db4e4ba3e4e7fb5U, 0x3f2d0af0U,
};


ai_handle g_modelstrojnegaucenja_weights_table[1 + 2] = {
  AI_HANDLE_PTR(AI_MAGIC_MARKER),
  AI_HANDLE_PTR(s_modelstrojnegaucenja_weights_array_u64),
  AI_HANDLE_PTR(AI_MAGIC_MARKER),
};

