/**
  ******************************************************************************
  * @file    randomforestjakostgibanja_data_params.c
  * @author  AST Embedded Analytics Research Platform
  * @date    Thu Jun  1 14:09:10 2023
  * @brief   AI Tool Automatic Code Generator for Embedded NN computing
  ******************************************************************************
  * Copyright (c) 2023 STMicroelectronics.
  * All rights reserved.
  *
  * This software is licensed under terms that can be found in the LICENSE file
  * in the root directory of this software component.
  * If no LICENSE file comes with this software, it is provided AS-IS.
  ******************************************************************************
  */

#include "randomforestjakostgibanja_data_params.h"


/**  Activations Section  ****************************************************/
ai_handle g_randomforestjakostgibanja_activations_table[1 + 2] = {
  AI_HANDLE_PTR(AI_MAGIC_MARKER),
  AI_HANDLE_PTR(NULL),
  AI_HANDLE_PTR(AI_MAGIC_MARKER),
};




/**  Weights Section  ********************************************************/
AI_ALIGNED(32)
const ai_u64 s_randomforestjakostgibanja_weights_array_u64[661] = {
  0x4000100010001U, 0x9000900040004U, 0xa000a000a0009U, 0xd000b000b000bU,
  0x100010000d000dU, 0x11001100110010U, 0x15001200120012U, 0x16001600150015U,
  0x17001700170016U, 0x1a001900190019U, 0x10001001a001aU, 0x5000500050001U,
  0xa000900090009U, 0xb000b000a000aU, 0xd000d000d000bU, 0x11001000100010U,
  0x12001200110011U, 0x15001500150012U, 0x18001600160016U, 0x19001900180018U,
  0x1a001a001a0019U, 0x5000100010001U, 0x7000700050005U, 0x9000900090007U,
  0xc000b000b000bU, 0xd000d000c000cU, 0x1000100010000dU, 0x14001200120012U,
  0x16001600140014U, 0x18001800180016U, 0x1a001900190019U, 0x20002001a001aU,
  0x3000300030002U, 0xa000600060006U, 0xb000b000a000aU, 0xc000c000c000bU,
  0x11000e000e000eU, 0x12001200110011U, 0x13001300130012U, 0x19001700170017U,
  0x1a001a00190019U, 0x1b001b001b001aU, 0x2001c001c001cU, 0x3000300020002U,
  0x6000600060003U, 0xa000900090009U, 0xb000b000a000aU, 0xc000c000c000bU,
  0x4000100010001U, 0x6000600040004U, 0x9000900090006U, 0xb000a000a000aU,
  0xe000e000b000bU, 0x1000100010000eU, 0x12001100110011U, 0x1000100120012U,
  0x5000500050001U, 0x8000600060006U, 0xb000b00080008U, 0xd000d000d000bU,
  0x10000e000e000eU, 0x14001400100010U, 0x15001500150014U, 0x17001600160016U,
  0x18001800170017U, 0x2000200020018U, 0x6000300030003U, 0x9000900060006U,
  0xb000b000b0009U, 0xf000c000c000cU, 0x100010000f000fU, 0x12001200120010U,
  0x14001300130013U, 0x2000200140014U, 0x3000300030002U, 0xa000700070007U,
  0xb000b000a000aU, 0xd000d000d000bU, 0x10000f000f000fU, 0x12001200100010U,
  0x16001600160012U, 0x18001700170017U, 0x19001900180018U, 0x1a001a001a0019U,
  0x4000100010001U, 0x7000700040004U, 0x9000900090007U, 0xc000a000a000aU,
  0xe000e000c000cU, 0xf000f000f000eU, 0x15001200120012U, 0x17001700150015U,
  0x18001800180017U, 0x1a001900190019U, 0x1010101001a001aU, 0x10101010101U,
  0x2d002a002a002aU, 0x210027001e0015U, 0x2a002aU, 0x0U,
  0x0U, 0x0U, 0x0U, 0x0U,
  0x0U, 0x0U, 0x0U, 0x0U,
  0x0U, 0x0U, 0x0U, 0x0U,
  0x0U, 0x0U, 0x0U, 0x0U,
  0x0U, 0x0U, 0x0U, 0x0U,
  0x0U, 0x0U, 0x0U, 0x0U,
  0x0U, 0x0U, 0x0U, 0x0U,
  0x0U, 0x100000000U, 0x38d4888b00000002U, 0x3ce28a2c00000000U,
  0x39abaf21U, 0x3bbff27e3c9375c6U, 0x3a47bf773a5674f2U, 0x0U,
  0x3bcf2d8100000000U, 0x3c491fc700000000U, 0x3c213bb4U, 0x0U,
  0x3c9c28643cd481bbU, 0x0U, 0x3d116a9700000000U, 0x0U,
  0x38d4888bU, 0x3c9375c63d0ffe18U, 0x3997ecd5U, 0x3a5674f23bbff27eU,
  0x3a4de2e1U, 0x0U, 0x3bcf2d81U, 0x3c1e05dc3c3cc9c4U,
  0x0U, 0x3cc1147f00000000U, 0x3c9c2864U, 0x3cf9ac8400000000U,
  0x0U, 0x3995d98500000000U, 0x3ca0a1f600000000U, 0x3a4de2e13c9375c6U,
  0x3a7348e400000000U, 0x3bb0e96600000000U, 0x3be35d7f00000000U, 0x0U,
  0x3d0ffe1800000000U, 0x3cd481bbU, 0x3ce28a2cU, 0x3ce72ec9U,
  0x3cf9ac84U, 0x3d06f667U, 0x0U, 0x37570c7f38d4888bU,
  0x0U, 0x3997ecd53ca0a1f6U, 0x3bbff27e00000000U, 0x3a47bf773a5674f2U,
  0x0U, 0x3bcf2d8100000000U, 0x3c8fbd4500000000U, 0x3c213bb4U,
  0x0U, 0x3d023faf3d0f653cU, 0x3cc1147fU, 0x3cde9ba4U,
  0x0U, 0x39a839fd00000000U, 0x37570c7fU, 0x3d03647600000000U,
  0x3c98a75cU, 0x3cd481bb3ce72ec9U, 0x0U, 0x0U,
  0x39cbb38fU, 0x3bbff27e3c9375c6U, 0x3bcf2d8100000000U, 0x3c47f9cf00000000U,
  0x3c213bb4U, 0x0U, 0x3ce9b3243d0ffe18U, 0x3d062f7e00000000U,
  0x0U, 0x38a95d8c00000000U, 0x3d116a9700000000U, 0x3997ecd53bbf9878U,
  0x0U, 0x3bcf4772U, 0x3c24af653c9375c6U, 0x3c3cc9c400000000U,
  0x0U, 0x3cbb902eU, 0x3cf9ac843d023fafU, 0x3cd481bbU,
  0x0U, 0x0U, 0x3755fa4638d4888bU, 0x0U,
  0x3997ecd53d0ffe18U, 0x3c8577e300000000U, 0x3bbf9878U, 0x3bcf2d81U,
  0x3cc8512600000000U, 0x3c9c2864U, 0x3cf9ac8400000000U, 0x0U,
  0x38d4888b00000000U, 0x3757d32eU, 0x3d0ffe1800000000U, 0x3997ecd53c9375c6U,
  0x3a5674f200000000U, 0x3a4de2e1U, 0x3c24af6500000000U, 0x3c3cc9c400000000U,
  0x0U, 0x3cc1147fU, 0x3d0364763d06f667U, 0x3cd68985U,
  0x0U, 0x0U, 0x38c7494aU, 0x3997ecd53c9c2864U,
  0x3c24af6500000000U, 0x3bbf9878U, 0x3bcf4772U, 0x3c47f9cf00000000U,
  0x3c9375c600000000U, 0x0U, 0x3cc1147f3d116a97U, 0x3d06f66700000000U,
  0x3ce28a2cU, 0x3ce72ec9U, 0x0U, 0x0U,
  0x0U, 0x4000300000001U, 0x8000700060000U, 0x9U,
  0x10000f0000000dU, 0x14000000000000U, 0x15U, 0x1000000000019U,
  0x5000400030000U, 0x9000800070000U, 0xd000000000000U, 0x10000f0000U,
  0x15001400000000U, 0x1800000000U, 0x100000000U, 0x500040003U,
  0x900000007U, 0xbU, 0x1200000010000fU, 0x16000000140000U,
  0x180000U, 0x200010000U, 0x600050000U, 0xa00090008U,
  0xe00000000U, 0x110010U, 0x17001600150000U, 0x190000U,
  0x2000100000000U, 0x6000500000000U, 0x900080000U, 0x1000000000000U,
  0x400030000U, 0x9000800000006U, 0xd000000000000U, 0x100000000eU,
  0x100000000U, 0x500040003U, 0xa000000080000U, 0xd0000000bU,
  0x12000000100000U, 0x140013U, 0x1000000000000U, 0x5000000000002U,
  0x9000800000006U, 0xb0000U, 0xf000eU, 0x12U,
  0x20001U, 0x700060005U, 0xa0009U, 0xf0000000dU,
  0x14000000120000U, 0x160015U, 0x1000000000000U, 0x400030000U,
  0x9000000070006U, 0xc00000000U, 0x1100000000000eU, 0x15001400000012U,
  0x170000U, 0x1000000000000U, 0x2000100000002U, 0x200010000U,
  0x1000000020001U, 0x2000100000002U, 0x200010000U, 0x1000000020001U,
  0x2000100000002U, 0x200010000U, 0x1000000020001U, 0x2000100000002U,
  0x200010000U, 0x1000000020001U, 0x2000100000002U, 0x200010000U,
  0x1000000020001U, 0x2000100000002U, 0x200010000U, 0x1000000020001U,
  0x2000100000002U, 0x200010000U, 0x1000000020001U, 0x2000100000002U,
  0x200010000U, 0x1000000020001U, 0x2000100000002U, 0x200010000U,
  0x1000000020001U, 0x2000100000002U, 0x200010000U, 0x1000000020001U,
  0x2000100000002U, 0x200010000U, 0x1000000020001U, 0x2000100000002U,
  0x200010000U, 0x1000000020001U, 0x2000100000002U, 0x200010000U,
  0x1000000020001U, 0x2000100000002U, 0x200010000U, 0x1000000020001U,
  0x2000100000002U, 0x200010000U, 0x1000000020001U, 0x2000100000002U,
  0x200010000U, 0x1000000020001U, 0x2000100000002U, 0x200010000U,
  0x1000000020001U, 0x2000100000002U, 0x200010000U, 0x1000000020001U,
  0x2000100000002U, 0x200010000U, 0x1000000020001U, 0x2000100000002U,
  0x200010000U, 0x1000000020001U, 0x2000100000002U, 0x200010000U,
  0x1000000020001U, 0x2000100000002U, 0x200010000U, 0x1000000020001U,
  0x2000100000002U, 0x200010000U, 0x1000000020001U, 0x2000100000002U,
  0x200010000U, 0x1000000020001U, 0x2000100000002U, 0x200010000U,
  0x1000000020001U, 0x2000100000002U, 0x200010000U, 0x1000000020001U,
  0x2000100000002U, 0x200010000U, 0x1000000020001U, 0x2000100000002U,
  0x200010000U, 0x1000000020001U, 0x2000100000002U, 0x200010000U,
  0x1000000020001U, 0x2000100000002U, 0x200010000U, 0x1000000020001U,
  0x2000100000002U, 0x200010000U, 0x1000000020001U, 0x2000100000002U,
  0x200020100U, 0x13000000050018U, 0xa000b000cU, 0xe00000000U,
  0x110012U, 0x1600170000U, 0x1a00000000U, 0x1a000000020000U,
  0xc000000060013U, 0xa000bU, 0x120000000e0000U, 0x11U,
  0x160017U, 0x19U, 0xd000e00000002U, 0x800000006U,
  0xc0000000aU, 0x11001a00000000U, 0x15000000130000U, 0x19000000170000U,
  0x4000000000000U, 0x14000000000003U, 0xc000d00000007U, 0xbU,
  0x1200130000000fU, 0x1c000000000000U, 0x1a00000018001bU, 0x0U,
  0x30004U, 0xb00000007000cU, 0xaU, 0xc000000020000U,
  0x700000005U, 0xa000bU, 0xf00120000U, 0x11U,
  0x7001800000002U, 0x9000000000006U, 0xc000f0000U, 0x1100000000000eU,
  0x15001600170000U, 0x0U, 0x300040000U, 0x700140000U,
  0xc0000000a000dU, 0x10001100000000U, 0x1300000000U, 0x3000400000000U,
  0x11001a00000000U, 0xb000c00000008U, 0xe00000000U, 0x13000000000010U,
  0x17001800190000U, 0x0U, 0x10000000020000U, 0x8000b00000005U,
  0xa0000U, 0xf0000000dU, 0x13001a0000U, 0x18000000160019U,
  0x0U, 0x0U, 0x3dcccccd3dcccccdU, 0x0U,
  0x3dcccccd00000000U, 0x3dcccccd00000000U, 0x0U, 0x3dcccccd00000000U,
  0x3dcccccd00000000U, 0x0U, 0x3dcccccd00000000U, 0x3dcccccd00000000U,
  0x0U, 0x3dcccccd00000000U, 0x3d4ccccd00000000U, 0x3d4ccccdU,
  0x3dcccccdU, 0x0U, 0x3dcccccdU, 0x3cf5c28f3d8f5c29U,
  0x3dcccccd00000000U, 0x0U, 0x0U, 0x3dcccccd3dcccccdU,
  0x0U, 0x3dcccccd00000000U, 0x3dcccccd00000000U, 0x0U,
  0x3dcccccd00000000U, 0x3dcccccd00000000U, 0x0U, 0x3dcccccd00000000U,
  0x3dcccccd00000000U, 0x0U, 0x3dcccccd00000000U, 0x3d4ccccd00000000U,
  0x3d4ccccdU, 0x3dcccccdU, 0x0U, 0x3dcccccdU,
  0x3d75c28f3d23d70aU, 0x3dcccccd00000000U, 0x0U, 0x0U,
  0x3dcccccdU, 0x3dcccccdU, 0x3dcccccdU, 0x0U,
  0x3dcccccdU, 0x3dcccccdU, 0x0U, 0x3dcccccdU,
  0x3d8888893d088889U, 0x3dcccccd00000000U, 0x0U, 0x3dcccccd00000000U,
  0x3dcccccd00000000U, 0x0U, 0x3dcccccd00000000U, 0x3d92492500000000U,
  0x3cea0ea1U, 0x3dcccccd00000000U, 0x3dcccccd00000000U, 0x0U,
  0x3dcccccdU, 0x0U, 0x3dcccccd00000000U, 0x3dcccccdU,
  0x0U, 0x3dcccccdU, 0x3dcccccdU, 0x0U,
  0x3dcccccdU, 0x3dcccccdU, 0x0U, 0x3dcccccdU,
  0x3daaaaab3c888889U, 0x3d4ccccd00000000U, 0x3d4ccccdU, 0x3dcccccdU,
  0x3d23d70a00000000U, 0x3d75c28fU, 0x3dcccccdU, 0x0U,
  0x3dcccccdU, 0x3dcccccdU, 0x3d4ccccd00000000U, 0x3d4ccccd00000000U,
  0x0U, 0x3dcccccdU, 0x3dcccccdU, 0x3dcccccdU,
  0x3d6a0ea100000000U, 0x3d2f8af9U, 0x3dcccccd00000000U, 0x3dcccccd00000000U,
  0x0U, 0x0U, 0x3dcccccdU, 0x3dcccccdU,
  0x3dcccccdU, 0x0U, 0x3dcccccdU, 0x3dcccccdU,
  0x0U, 0x3dcccccdU, 0x3dcccccdU, 0x3d4ccccd00000000U,
  0x3d4ccccdU, 0x3dcccccd00000000U, 0x3dcccccd00000000U, 0x0U,
  0x0U, 0x3dcccccd3dcccccdU, 0x0U, 0x3dcccccd00000000U,
  0x3dcccccd00000000U, 0x0U, 0x3dcccccd00000000U, 0x3dcccccd00000000U,
  0x0U, 0x3dcccccd00000000U, 0x3dcccccd00000000U, 0x0U,
  0x3d8888893d088889U, 0x0U, 0x3dcccccdU, 0x3dcccccdU,
  0x0U, 0x3dcccccdU, 0x3dcccccdU, 0x3ccccccd00000000U,
  0x3d99999a00000000U, 0x0U, 0x3dcccccd3dcccccdU, 0x0U,
  0x3dcccccd00000000U, 0x3dcccccd00000000U, 0x0U, 0x3dcccccd00000000U,
  0x3d4ccccd00000000U, 0x3d4ccccdU, 0x3dcccccdU, 0x0U,
  0x3dcccccdU, 0x3daaaaab3c888889U, 0x3dcccccd00000000U, 0x0U,
  0x3d4ccccdU, 0x3d4ccccdU, 0x3dcccccd00000000U, 0x3dcccccdU,
  0x0U, 0x3dcccccdU, 0x3dcccccdU, 0x0U,
  0x3dcccccdU, 0x3dcccccdU, 0x0U, 0x3dcccccdU,
  0x3dcccccdU, 0x3d08888900000000U, 0x3d888889U, 0x3dcccccd00000000U,
  0x3dcccccd00000000U, 0x0U, 0x3dcccccd00000000U, 0x3dcccccd00000000U,
  0x0U, 0x0U, 0x3dcccccd3dcccccdU, 0x0U,
  0x3dcccccd00000000U, 0x3dcccccd00000000U, 0x0U, 0x3dcccccd00000000U,
  0x3dcccccd00000000U, 0x0U, 0x3dcccccd00000000U, 0x3ccccccd00000000U,
  0x3d99999aU, 0x3dcccccdU, 0x0U, 0x3dcccccdU,
  0x3dcccccdU, 0x3d2f8af900000000U, 0x3d6a0ea1U, 0x3dcccccd00000000U,
  0x3dcccccd00000000U, 0x0U, 0x1d001b001b001bU, 0x1500190013000dU,
  0x1b001bU,
};


ai_handle g_randomforestjakostgibanja_weights_table[1 + 2] = {
  AI_HANDLE_PTR(AI_MAGIC_MARKER),
  AI_HANDLE_PTR(s_randomforestjakostgibanja_weights_array_u64),
  AI_HANDLE_PTR(AI_MAGIC_MARKER),
};

