/**
  ******************************************************************************
  * @file    randomforest_data_params.c
  * @author  AST Embedded Analytics Research Platform
  * @date    Tue Jul 11 20:11:36 2023
  * @brief   AI Tool Automatic Code Generator for Embedded NN computing
  ******************************************************************************
  * Copyright (c) 2023 STMicroelectronics.
  * All rights reserved.
  *
  * This software is licensed under terms that can be found in the LICENSE file
  * in the root directory of this software component.
  * If no LICENSE file comes with this software, it is provided AS-IS.
  ******************************************************************************
  */

#include "randomforest_data_params.h"


/**  Activations Section  ****************************************************/
ai_handle g_randomforest_activations_table[1 + 2] = {
  AI_HANDLE_PTR(AI_MAGIC_MARKER),
  AI_HANDLE_PTR(NULL),
  AI_HANDLE_PTR(AI_MAGIC_MARKER),
};




/**  Weights Section  ********************************************************/
AI_ALIGNED(32)
const ai_u64 s_randomforest_weights_array_u64[10062] = {
  0x3000300030003U, 0x4000400040003U, 0x7000700040004U, 0x9000700070007U,
  0x9000900090009U, 0xa000a000a000aU, 0xb000b000b000aU, 0x120012000b000bU,
  0x15001200120012U, 0x15001500150015U, 0x19001900190019U, 0x1b001b001b0019U,
  0x1d001d001b001bU, 0x1e001d001d001dU, 0x1e001e001e001eU, 0x20002000200020U,
  0x21002100210020U, 0x22002200210021U, 0x23002200220022U, 0x23002300230023U,
  0x26002600260026U, 0x27002700270026U, 0x28002800270027U, 0x2a002800280028U,
  0x2a002a002a002aU, 0x2c002c002c002cU, 0x2d002d002d002cU, 0x330033002d002dU,
  0x34003300330033U, 0x34003400340034U, 0x35003500350035U, 0x36003600360035U,
  0x38003800360036U, 0x39003800380038U, 0x39003900390039U, 0x3c003c003c003cU,
  0x3d003d003d003cU, 0x3e003e003d003dU, 0x42003e003e003eU, 0x42004200420042U,
  0x44004400440044U, 0x46004600460044U, 0x4b004b00460046U, 0x4c004b004b004bU,
  0x4c004c004c004cU, 0x4e004e004e004eU, 0x5100510051004eU, 0x52005200510051U,
  0x53005200520052U, 0x53005300530053U, 0x58005800580058U, 0x59005900590058U,
  0x5a005a00590059U, 0x5d005a005a005aU, 0x5d005d005d005dU, 0x5e005e005e005eU,
  0x5f005f005f005eU, 0x600060005f005fU, 0x61006000600060U, 0x61006100610061U,
  0x62006200620062U, 0x66006600660062U, 0x6b006b00660066U, 0x6c006b006b006bU,
  0x6c006c006c006cU, 0x6d006d006d006dU, 0x6e006e006e006dU, 0x6f006f006e006eU,
  0x73006f006f006fU, 0x73007300730073U, 0x74007400740074U, 0x75007500750074U,
  0x78007800750075U, 0x79007800780078U, 0x79007900790079U, 0x7d007d007d007dU,
  0x7e007e007e007dU, 0x800080007e007eU, 0x82008000800080U, 0x82008200820082U,
  0x83008300830083U, 0x84008400840083U, 0x88008800840084U, 0x8b008800880088U,
  0x8b008b008b008bU, 0x8c008c008c008cU, 0x8d008d008d008cU, 0x930093008d008dU,
  0x94009300930093U, 0x94009400940094U, 0x95009500950095U, 0x96009600960095U,
  0x97009700960096U, 0x98009700970097U, 0x98009800980098U, 0x9c009c009c009cU,
  0x9d009d009d009cU, 0xa000a0009d009dU, 0xa100a000a000a0U, 0xa100a100a100a1U,
  0xa400a400a400a4U, 0xa500a500a500a4U, 0xa700a700a500a5U, 0xa800a700a700a7U,
  0xa800a800a800a8U, 0xac00ac00ac00acU, 0xae00ae00ae00acU, 0xaf00af00ae00aeU,
  0xb000af00af00afU, 0xb000b000b000b0U, 0xb100b100b100b1U, 0xb400b400b400b1U,
  0xb600b600b400b4U, 0xb700b600b600b6U, 0xb700b700b700b7U, 0xba00ba00ba00baU,
  0xbc00bc00bc00baU, 0xbd00bd00bc00bcU, 0xc000bd00bd00bdU, 0xc000c000c000c0U,
  0xc200c200c200c2U, 0xc400c400c400c2U, 0xc500c500c400c4U, 0xc600c500c500c5U,
  0xc600c600c600c6U, 0x2000200020002U, 0x3000300030002U, 0xb000b00030003U,
  0xe000b000b000bU, 0xe000e000e000eU, 0x12001200120012U, 0x13001300130012U,
  0x15001500130013U, 0x17001500150015U, 0x17001700170017U, 0x19001900190019U,
  0x1c001c001c0019U, 0x1d001d001c001cU, 0x1e001d001d001dU, 0x1e001e001e001eU,
  0x21002100210021U, 0x22002200220021U, 0x23002300220022U, 0x24002300230023U,
  0x24002400240024U, 0x25002500250025U, 0x27002700270025U, 0x29002900270027U,
  0x2a002900290029U, 0x2a002a002a002aU, 0x2d002d002d002dU, 0x2e002e002e002dU,
  0x320032002e002eU, 0x34003200320032U, 0x34003400340034U, 0x36003600360036U,
  0x38003800380036U, 0x39003900380038U, 0x3a003900390039U, 0x3a003a003a003aU,
  0x3c003c003c003cU, 0x4100410041003cU, 0x42004200410041U, 0x45004200420042U,
  0x45004500450045U, 0x46004600460046U, 0x47004700470046U, 0x48004800470047U,
  0x49004800480048U, 0x49004900490049U, 0x4e004e004e004eU, 0x5000500050004eU,
  0x51005100500050U, 0x53005100510051U, 0x53005300530053U, 0x54005400540054U,
  0x58005800580054U, 0x59005900580058U, 0x5a005900590059U, 0x5a005a005a005aU,
  0x5c005c005c005cU, 0x5d005d005d005cU, 0x5f005f005d005dU, 0x60005f005f005fU,
  0x60006000600060U, 0x63006300630063U, 0x65006500650063U, 0x69006900650065U,
  0x6a006900690069U, 0x6a006a006a006aU, 0x6b006b006b006bU, 0x6d006d006d006bU,
  0x6e006e006d006dU, 0x71006e006e006eU, 0x71007100710071U, 0x73007300730073U,
  0x74007400740073U, 0x77007700740074U, 0x78007700770077U, 0x78007800780078U,
  0x7a007a007a007aU, 0x7c007c007c007aU, 0x800080007c007cU, 0x81008000800080U,
  0x81008100810081U, 0x82008200820082U, 0x84008400840082U, 0x86008600840084U,
  0x88008600860086U, 0x88008800880088U, 0x89008900890089U, 0x8c008c008c0089U,
  0x910091008c008cU, 0x92009100910091U, 0x92009200920092U, 0x93009300930093U,
  0x95009500950093U, 0x96009600950095U, 0x97009600960096U, 0x97009700970097U,
  0x98009800980098U, 0x2000200020098U, 0x3000300020002U, 0xd000300030003U,
  0xd000d000d000dU, 0x12001200120012U, 0x13001300130012U, 0x14001400130013U,
  0x15001400140014U, 0x15001500150015U, 0x16001600160016U, 0x17001700170016U,
  0x18001800170017U, 0x19001800180018U, 0x19001900190019U, 0x1a001a001a001aU,
  0x1e001e001e001aU, 0x200020001e001eU, 0x23002000200020U, 0x23002300230023U,
  0x24002400240024U, 0x25002500250024U, 0x26002600250025U, 0x29002600260026U,
  0x29002900290029U, 0x2a002a002a002aU, 0x2b002b002b002aU, 0x2e002e002b002bU,
  0x2f002e002e002eU, 0x2f002f002f002fU, 0x30003000300030U, 0x34003400340030U,
  0x38003800340034U, 0x3a003800380038U, 0x3a003a003a003aU, 0x3c003c003c003cU,
  0x3e003e003e003cU, 0x3f003f003e003eU, 0x40003f003f003fU, 0x40004000400040U,
  0x41004100410041U, 0x47004700470041U, 0x48004800470047U, 0x49004800480048U,
  0x49004900490049U, 0x4b004b004b004bU, 0x4c004c004c004bU, 0x4e004e004c004cU,
  0x50004e004e004eU, 0x50005000500050U, 0x54005400540054U, 0x56005600560054U,
  0x58005800560056U, 0x5a005800580058U, 0x5a005a005a005aU, 0x5b005b005b005bU,
  0x5c005c005c005bU, 0x5e005e005c005cU, 0x5f005e005e005eU, 0x5f005f005f005fU,
  0x62006200620062U, 0x64006400640062U, 0x66006600640064U, 0x67006600660066U,
  0x67006700670067U, 0x68006800680068U, 0x6d006d006d0068U, 0x6e006e006d006dU,
  0x71006e006e006eU, 0x71007100710071U, 0x73007300730073U, 0x75007500750073U,
  0x76007600750075U, 0x78007600760076U, 0x78007800780078U, 0x79007900790079U,
  0x7c007c007c0079U, 0x7e007e007c007cU, 0x80007e007e007eU, 0x80008000800080U,
  0x81008100810081U, 0x83008300830081U, 0x85008500830083U, 0x87008500850085U,
  0x87008700870087U, 0x88008800880088U, 0x8b008b008b0088U, 0x8e008e008b008bU,
  0x8f008e008e008eU, 0x8f008f008f008fU, 0x90009000900090U, 0x93009300930090U,
  0x94009400930093U, 0x95009400940094U, 0x95009500950095U, 0x9c009c009c009cU,
  0x9e009e009e009cU, 0x9f009f009e009eU, 0xa2009f009f009fU, 0xa200a200a200a2U,
  0xa300a300a300a3U, 0xa400a400a400a3U, 0xa500a500a400a4U, 0xa700a500a500a5U,
  0xa700a700a700a7U, 0xad00ad00ad00adU, 0xae00ae00ae00adU, 0xaf00af00ae00aeU,
  0xb000af00af00afU, 0xb000b000b000b0U, 0xb200b200b200b2U, 0xb300b300b300b2U,
  0xb400b400b300b3U, 0xb700b400b400b4U, 0xb700b700b700b7U, 0xb900b900b900b9U,
  0xba00ba00ba00b9U, 0xbb00bb00ba00baU, 0xbd00bb00bb00bbU, 0xbd00bd00bd00bdU,
  0xbf00bf00bf00bfU, 0xc200c200c200bfU, 0xc400c400c200c2U, 0xc600c400c400c4U,
  0xc600c600c600c6U, 0xc800c800c800c8U, 0xc900c900c900c8U, 0xca00ca00c900c9U,
  0x200ca00ca00caU, 0x2000200020002U, 0x4000400040004U, 0x5000500050004U,
  0xb000b00050005U, 0xf000b000b000bU, 0xf000f000f000fU, 0x11001100110011U,
  0x13001300130011U, 0x14001400130013U, 0x15001400140014U, 0x15001500150015U,
  0x16001600160016U, 0x18001800180016U, 0x19001900180018U, 0x1e001900190019U,
  0x1e001e001e001eU, 0x20002000200020U, 0x22002200220020U, 0x23002300220022U,
  0x24002300230023U, 0x24002400240024U, 0x25002500250025U, 0x2a002a002a0025U,
  0x2c002c002a002aU, 0x2e002c002c002cU, 0x2e002e002e002eU, 0x32003200320032U,
  0x33003300330032U, 0x34003400330033U, 0x35003400340034U, 0x35003500350035U,
  0x36003600360036U, 0x3a003a003a0036U, 0x3b003b003a003aU, 0x3c003b003b003bU,
  0x3c003c003c003cU, 0x3e003e003e003eU, 0x3f003f003f003eU, 0x440044003f003fU,
  0x46004400440044U, 0x46004600460046U, 0x48004800480048U, 0x49004900490048U,
  0x4c004c00490049U, 0x4d004c004c004cU, 0x4d004d004d004dU, 0x4e004e004e004eU,
  0x5200520052004eU, 0x54005400520052U, 0x59005400540054U, 0x59005900590059U,
  0x5a005a005a005aU, 0x5b005b005b005aU, 0x5c005c005b005bU, 0x5d005c005c005cU,
  0x5d005d005d005dU, 0x60006000600060U, 0x61006100610060U, 0x64006400610061U,
  0x65006400640064U, 0x65006500650065U, 0x68006800680068U, 0x6a006a006a0068U,
  0x6b006b006a006aU, 0x6e006b006b006bU, 0x6e006e006e006eU, 0x6f006f006f006fU,
  0x7000700070006fU, 0x72007200700070U, 0x73007200720072U, 0x73007300730073U,
  0x74007400740074U, 0x78007800780074U, 0x79007900780078U, 0x7a007900790079U,
  0x7a007a007a007aU, 0x80008000800080U, 0x81008100810080U, 0x82008200810081U,
  0x83008200820082U, 0x83008300830083U, 0x84008400840084U, 0x88008800880084U,
  0x8b008b00880088U, 0x8c008b008b008bU, 0x8c008c008c008cU, 0x8d008d008d008dU,
  0x9000900090008dU, 0x94009400900090U, 0x95009400940094U, 0x95009500950095U,
  0x96009600960096U, 0x97009700970096U, 0x99009900970097U, 0x9a009900990099U,
  0x9a009a009a009aU, 0x9d009d009d009dU, 0x9e009e009e009dU, 0x9f009f009e009eU,
  0xa3009f009f009fU, 0xa300a300a300a3U, 0xa400a400a400a4U, 0xa600a600a600a4U,
  0xa800a800a600a6U, 0xaa00a800a800a8U, 0xaa00aa00aa00aaU, 0xab00ab00ab00abU,
  0xad00ad00ad00abU, 0xaf00af00ad00adU, 0xb100af00af00afU, 0xb100b100b100b1U,
  0xb400b400b400b4U, 0xb600b600b600b4U, 0xb900b900b600b6U, 0xba00b900b900b9U,
  0xba00ba00ba00baU, 0xbb00bb00bb00bbU, 0xbc00bc00bc00bbU, 0x1000100bc00bcU,
  0x9000100010001U, 0x9000900090009U, 0xc000c000c000cU, 0xd000d000d000cU,
  0xe000e000d000dU, 0x10000e000e000eU, 0x10001000100010U, 0x11001100110011U,
  0x14001400140011U, 0x16001600140014U, 0x17001600160016U, 0x17001700170017U,
  0x19001900190019U, 0x1b001b001b0019U, 0x1c001c001b001bU, 0x1e001c001c001cU,
  0x1e001e001e001eU, 0x21002100210021U, 0x22002200220021U, 0x23002300220022U,
  0x2b002300230023U, 0x2b002b002b002bU, 0x2c002c002c002cU, 0x2e002e002e002cU,
  0x2f002f002e002eU, 0x30002f002f002fU, 0x30003000300030U, 0x31003100310031U,
  0x32003200320031U, 0x34003400320032U, 0x37003400340034U, 0x37003700370037U,
  0x3a003a003a003aU, 0x3b003b003b003aU, 0x3c003c003b003bU, 0x3d003c003c003cU,
  0x3d003d003d003dU, 0x3f003f003f003fU, 0x4000400040003fU, 0x46004600400040U,
  0x48004600460046U, 0x48004800480048U, 0x49004900490049U, 0x4a004a004a0049U,
  0x4d004d004a004aU, 0x4f004d004d004dU, 0x4f004f004f004fU, 0x50005000500050U,
  0x52005200520050U, 0x53005300520052U, 0x56005300530053U, 0x56005600560056U,
  0x5b005b005b005bU, 0x5c005c005c005bU, 0x5f005f005c005cU, 0x60005f005f005fU,
  0x60006000600060U, 0x61006100610061U, 0x64006400640061U, 0x65006500640064U,
  0x68006500650065U, 0x68006800680068U, 0x69006900690069U, 0x6a006a006a0069U,
  0x6c006c006a006aU, 0x6d006c006c006cU, 0x6d006d006d006dU, 0x70007000700070U,
  0x71007100710070U, 0x73007300710071U, 0x75007300730073U, 0x75007500750075U,
  0x77007700770077U, 0x78007800780077U, 0x7a007a00780078U, 0x7c007a007a007aU,
  0x7c007c007c007cU, 0x82008200820082U, 0x83008300830082U, 0x84008400830083U,
  0x86008400840084U, 0x86008600860086U, 0x88008800880088U, 0x89008900890088U,
  0x8a008a00890089U, 0x8d008a008a008aU, 0x8d008d008d008dU, 0x8e008e008e008eU,
  0x8f008f008f008eU, 0x940094008f008fU, 0x95009400940094U, 0x95009500950095U,
  0x99009900990099U, 0x9a009a009a0099U, 0x9b009b009a009aU, 0x9d009b009b009bU,
  0x9d009d009d009dU, 0x9e009e009e009eU, 0xa000a000a0009eU, 0xa400a400a000a0U,
  0xa500a400a400a4U, 0xa500a500a500a5U, 0xa600a600a600a6U, 0xa800a800a800a6U,
  0xaa00aa00a800a8U, 0xab00aa00aa00aaU, 0xab00ab00ab00abU, 0xac00ac00ac00acU,
  0x10001000100acU, 0x7000700010001U, 0xa000700070007U, 0xa000a000a000aU,
  0xb000b000b000bU, 0xc000c000c000bU, 0x120012000c000cU, 0x14001200120012U,
  0x14001400140014U, 0x16001600160016U, 0x17001700170016U, 0x18001800170017U,
  0x19001800180018U, 0x19001900190019U, 0x1c001c001c001cU, 0x1d001d001d001cU,
  0x1f001f001d001dU, 0x20001f001f001fU, 0x20002000200020U, 0x22002200220022U,
  0x25002500250022U, 0x26002600250025U, 0x27002600260026U, 0x27002700270027U,
  0x2d002d002d002dU, 0x2f002f002f002dU, 0x320032002f002fU, 0x36003200320032U,
  0x36003600360036U, 0x37003700370037U, 0x38003800380037U, 0x39003900380038U,
  0x3a003900390039U, 0x3a003a003a003aU, 0x3b003b003b003bU, 0x3d003d003d003bU,
  0x3e003e003d003dU, 0x40003e003e003eU, 0x40004000400040U, 0x41004100410041U,
  0x43004300430041U, 0x45004500430043U, 0x48004500450045U, 0x48004800480048U,
  0x4a004a004a004aU, 0x4b004b004b004aU, 0x4f004f004b004bU, 0x50004f004f004fU,
  0x50005000500050U, 0x51005100510051U, 0x52005200520051U, 0x55005500520052U,
  0x56005500550055U, 0x56005600560056U, 0x59005900590059U, 0x5b005b005b0059U,
  0x5c005c005b005bU, 0x5f005c005c005cU, 0x5f005f005f005fU, 0x61006100610061U,
  0x62006200620061U, 0x65006500620062U, 0x66006500650065U, 0x66006600660066U,
  0x67006700670067U, 0x6b006b006b0067U, 0x6d006d006b006bU, 0x6f006d006d006dU,
  0x6f006f006f006fU, 0x71007100710071U, 0x72007200720071U, 0x74007400720072U,
  0x79007400740074U, 0x79007900790079U, 0x7a007a007a007aU, 0x7b007b007b007aU,
  0x7e007e007b007bU, 0x80007e007e007eU, 0x80008000800080U, 0x82008200820082U,
  0x83008300830082U, 0x84008400830083U, 0x85008400840084U, 0x85008500850085U,
  0x8a008a008a008aU, 0x8b008b008b008aU, 0x8c008c008b008bU, 0x8d008c008c008cU,
  0x8d008d008d008dU, 0x8f008f008f008fU, 0x9100910091008fU, 0x94009400910091U,
  0x95009400940094U, 0x95009500950095U, 0x96009600960096U, 0x1000100010096U,
  0x9000900010001U, 0xa000900090009U, 0xa000a000a000aU, 0xd000d000d000dU,
  0xe000e000e000dU, 0x110011000e000eU, 0x13001100110011U, 0x13001300130013U,
  0x14001400140014U, 0x17001700170014U, 0x1a001a00170017U, 0x1b001a001a001aU,
  0x1b001b001b001bU, 0x1c001c001c001cU, 0x1d001d001d001cU, 0x1f001f001d001dU,
  0x20001f001f001fU, 0x20002000200020U, 0x25002500250025U, 0x26002600260025U,
  0x29002900260026U, 0x2a002900290029U, 0x2a002a002a002aU, 0x2b002b002b002bU,
  0x2c002c002c002bU, 0x2f002f002c002cU, 0x30002f002f002fU, 0x30003000300030U,
  0x32003200320032U, 0x35003500350032U, 0x36003600350035U, 0x38003600360036U,
  0x38003800380038U, 0x39003900390039U, 0x3d003d003d0039U, 0x410041003d003dU,
  0x42004100410041U, 0x42004200420042U, 0x43004300430043U, 0x44004400440043U,
  0x45004500440044U, 0x4b004500450045U, 0x4b004b004b004bU, 0x4c004c004c004cU,
  0x4d004d004d004cU, 0x4e004e004d004dU, 0x4f004e004e004eU, 0x4f004f004f004fU,
  0x51005100510051U, 0x53005300530051U, 0x54005400530053U, 0x58005400540054U,
  0x58005800580058U, 0x5a005a005a005aU, 0x5e005e005e005aU, 0x5f005f005e005eU,
  0x60005f005f005fU, 0x60006000600060U, 0x61006100610061U, 0x63006300630061U,
  0x64006400630063U, 0x66006400640064U, 0x66006600660066U, 0x68006800680068U,
  0x6b006b006b0068U, 0x6d006d006b006bU, 0x6f006d006d006dU, 0x6f006f006f006fU,
  0x70007000700070U, 0x72007200720070U, 0x74007400720072U, 0x76007400740074U,
  0x76007600760076U, 0x78007800780078U, 0x79007900790078U, 0x7b007b00790079U,
  0x81007b007b007bU, 0x81008100810081U, 0x82008200820082U, 0x83008300830082U,
  0x84008400830083U, 0x86008400840084U, 0x86008600860086U, 0x89008900890089U,
  0x8a008a008a0089U, 0x8b008b008a008aU, 0x8c008b008b008bU, 0x8c008c008c008cU,
  0x1000100010001U, 0xd000d000d0001U, 0xe000e000d000dU, 0xf000e000e000eU,
  0xf000f000f000fU, 0x10001000100010U, 0x11001100110010U, 0x12001200110011U,
  0x15001200120012U, 0x15001500150015U, 0x17001700170017U, 0x1c001c001c0017U,
  0x1d001d001c001cU, 0x1e001d001d001dU, 0x1e001e001e001eU, 0x1f001f001f001fU,
  0x2000200020001fU, 0x21002100200020U, 0x23002100210021U, 0x23002300230023U,
  0x25002500250025U, 0x26002600260025U, 0x2a002a00260026U, 0x2c002a002a002aU,
  0x2c002c002c002cU, 0x2d002d002d002dU, 0x3000300030002dU, 0x31003100300030U,
  0x32003100310031U, 0x32003200320032U, 0x36003600360036U, 0x37003700370036U,
  0x3b003b00370037U, 0x3c003b003b003bU, 0x3c003c003c003cU, 0x3d003d003d003dU,
  0x3e003e003e003dU, 0x410041003e003eU, 0x43004100410041U, 0x43004300430043U,
  0x45004500450045U, 0x46004600460045U, 0x47004700460046U, 0x4e004700470047U,
  0x4e004e004e004eU, 0x4f004f004f004fU, 0x5000500050004fU, 0x51005100500050U,
  0x52005100510051U, 0x52005200520052U, 0x56005600560056U, 0x57005700570056U,
  0x59005900570057U, 0x5a005900590059U, 0x5a005a005a005aU, 0x5c005c005c005cU,
  0x5d005d005d005cU, 0x630063005d005dU, 0x64006300630063U, 0x64006400640064U,
  0x65006500650065U, 0x66006600660065U, 0x67006700660066U, 0x6a006700670067U,
  0x6a006a006a006aU, 0x6c006c006c006cU, 0x6e006e006e006cU, 0x700070006e006eU,
  0x71007000700070U, 0x71007100710071U, 0x72007200720072U, 0x76007600760072U,
  0x77007700760076U, 0x79007700770077U, 0x79007900790079U, 0x7b007b007b007bU,
  0x7c007c007c007bU, 0x7e007e007c007cU, 0x81007e007e007eU, 0x81008100810081U,
  0x82008200820082U, 0x86008600860082U, 0x87008700860086U, 0x88008700870087U,
  0x88008800880088U, 0x89008900890089U, 0x8b008b008b0089U, 0x8e008e008b008bU,
  0x8f008e008e008eU, 0x8f008f008f008fU, 0x93009300930093U, 0x96009600960093U,
  0x97009700960096U, 0x98009700970097U, 0x98009800980098U, 0x99009900990099U,
  0x9a009a009a0099U, 0x10001009a009aU, 0x9000100010001U, 0x9000900090009U,
  0xb000b000b000bU, 0xd000d000d000bU, 0xe000e000d000dU, 0x10000e000e000eU,
  0x10001000100010U, 0x13001300130013U, 0x14001400140013U, 0x15001500140014U,
  0x18001500150015U, 0x18001800180018U, 0x19001900190019U, 0x1b001b001b0019U,
  0x1e001e001b001bU, 0x1f001e001e001eU, 0x1f001f001f001fU, 0x20002000200020U,
  0x25002500250020U, 0x26002600250025U, 0x28002600260026U, 0x28002800280028U,
  0x29002900290029U, 0x2a002a002a0029U, 0x2d002d002a002aU, 0x30002d002d002dU,
  0x30003000300030U, 0x31003100310031U, 0x32003200320031U, 0x36003600320032U,
  0x3a003600360036U, 0x3a003a003a003aU, 0x3d003d003d003dU, 0x4000400040003dU,
  0x41004100400040U, 0x42004100410041U, 0x42004200420042U, 0x43004300430043U,
  0x45004500450043U, 0x47004700450045U, 0x48004700470047U, 0x48004800480048U,
  0x49004900490049U, 0x4a004a004a0049U, 0x4c004c004a004aU, 0x4d004c004c004cU,
  0x4d004d004d004dU, 0x52005200520052U, 0x53005300530052U, 0x54005400530053U,
  0x57005400540054U, 0x57005700570057U, 0x58005800580058U, 0x59005900590058U,
  0x5c005c00590059U, 0x5d005c005c005cU, 0x5d005d005d005dU, 0x60006000600060U,
  0x62006200620060U, 0x66006600620062U, 0x68006600660066U, 0x68006800680068U,
  0x69006900690069U, 0x6a006a006a0069U, 0x6c006c006a006aU, 0x6e006c006c006cU,
  0x6e006e006e006eU, 0x6f006f006f006fU, 0x7000700070006fU, 0x72007200700070U,
  0x77007200720072U, 0x77007700770077U, 0x78007800780078U, 0x79007900790078U,
  0x7a007a00790079U, 0x7c007a007a007aU, 0x7c007c007c007cU, 0x7e007e007e007eU,
  0x8000800080007eU, 0x82008200800080U, 0x85008200820082U, 0x85008500850085U,
  0x86008600860086U, 0x87008700870086U, 0x8c008c00870087U, 0x8e008c008c008cU,
  0x8e008e008e008eU, 0x90009000900090U, 0x91009100910090U, 0x92009200910091U,
  0x96009200920092U, 0x96009600960096U, 0x97009700970097U, 0x99009900990097U,
  0x9a009a00990099U, 0x9b009a009a009aU, 0x9b009b009b009bU, 0x9c009c009c009cU,
  0x100010001009cU, 0x6000600010001U, 0x11000600060006U, 0x11001100110011U,
  0x12001200120012U, 0x13001300130012U, 0x14001400130013U, 0x15001400140014U,
  0x15001500150015U, 0x16001600160016U, 0x17001700170016U, 0x18001800170017U,
  0x19001800180018U, 0x19001900190019U, 0x1b001b001b001bU, 0x1d001d001d001bU,
  0x1e001e001d001dU, 0x1f001e001e001eU, 0x1f001f001f001fU, 0x20002000200020U,
  0x23002300230020U, 0x27002700230023U, 0x28002700270027U, 0x28002800280028U,
  0x29002900290029U, 0x2b002b002b0029U, 0x2c002c002b002bU, 0x2d002c002c002cU,
  0x2d002d002d002dU, 0x34003400340034U, 0x35003500350034U, 0x36003600350035U,
  0x3b003600360036U, 0x3b003b003b003bU, 0x3c003c003c003cU, 0x3d003d003d003cU,
  0x400040003d003dU, 0x41004000400040U, 0x41004100410041U, 0x44004400440044U,
  0x45004500450044U, 0x47004700450045U, 0x49004700470047U, 0x49004900490049U,
  0x4a004a004a004aU, 0x4e004e004e004aU, 0x4f004f004e004eU, 0x50004f004f004fU,
  0x50005000500050U, 0x51005100510051U, 0x54005400540051U, 0x55005500540054U,
  0x57005500550055U, 0x57005700570057U, 0x58005800580058U, 0x5d005d005d0058U,
  0x600060005d005dU, 0x61006000600060U, 0x61006100610061U, 0x62006200620062U,
  0x64006400640062U, 0x65006500640064U, 0x66006500650065U, 0x66006600660066U,
  0x6c006c006c006cU, 0x6d006d006d006cU, 0x6e006e006d006dU, 0x70006e006e006eU,
  0x70007000700070U, 0x72007200720072U, 0x73007300730072U, 0x74007400730073U,
  0x79007400740074U, 0x79007900790079U, 0x7b007b007b007bU, 0x7d007d007d007bU,
  0x7e007e007d007dU, 0x7f007e007e007eU, 0x7f007f007f007fU, 0x80008000800080U,
  0x85008500850080U, 0x87008700850085U, 0x88008700870087U, 0x88008800880088U,
  0x89008900890089U, 0x8d008d008d0089U, 0x8f008f008d008dU, 0x91008f008f008fU,
  0x91009100910091U, 0x92009200920092U, 0x93009300930092U, 0x94009400930093U,
  0x95009400940094U, 0x95009500950095U, 0x98009800980098U, 0x99009900990098U,
  0x9b009b00990099U, 0x9e009b009b009bU, 0x9e009e009e009eU, 0x9f009f009f009fU,
  0xa100a100a1009fU, 0xa300a300a100a1U, 0xa500a300a300a3U, 0xa500a500a500a5U,
  0xa600a600a600a6U, 0x20002000200a6U, 0x3000300020002U, 0xc000300030003U,
  0xc000c000c000cU, 0xe000e000e000eU, 0xf000f000f000eU, 0x100010000f000fU,
  0x11001000100010U, 0x11001100110011U, 0x13001300130013U, 0x15001500150013U,
  0x17001700150015U, 0x18001700170017U, 0x18001800180018U, 0x1a001a001a001aU,
  0x1d001d001d001aU, 0x1f001f001d001dU, 0x20001f001f001fU, 0x20002000200020U,
  0x23002300230023U, 0x24002400240023U, 0x27002700240024U, 0x28002700270027U,
  0x28002800280028U, 0x29002900290029U, 0x2c002c002c0029U, 0x2f002f002c002cU,
  0x32002f002f002fU, 0x32003200320032U, 0x36003600360036U, 0x37003700370036U,
  0x39003900370037U, 0x3a003900390039U, 0x3a003a003a003aU, 0x3b003b003b003bU,
  0x3c003c003c003bU, 0x3e003e003c003cU, 0x40003e003e003eU, 0x40004000400040U,
  0x41004100410041U, 0x45004500450041U, 0x48004800450045U, 0x49004800480048U,
  0x49004900490049U, 0x4a004a004a004aU, 0x4d004d004d004aU, 0x4e004e004d004dU,
  0x50004e004e004eU, 0x50005000500050U, 0x52005200520052U, 0x54005400540052U,
  0x55005500540054U, 0x58005500550055U, 0x58005800580058U, 0x59005900590059U,
  0x5d005d005d0059U, 0x5e005e005d005dU, 0x5f005e005e005eU, 0x5f005f005f005fU,
  0x60006000600060U, 0x62006200620060U, 0x64006400620062U, 0x69006400640064U,
  0x69006900690069U, 0x6c006c006c006cU, 0x6d006d006d006cU, 0x6e006e006d006dU,
  0x73006e006e006eU, 0x73007300730073U, 0x74007400740074U, 0x75007500750074U,
  0x76007600750075U, 0x77007600760076U, 0x77007700770077U, 0x78007800780078U,
  0x79007900790078U, 0x7d007d00790079U, 0x7e007d007d007dU, 0x7e007e007e007eU,
  0x80008000800080U, 0x81008100810080U, 0x84008400810081U, 0x85008400840084U,
  0x85008500850085U, 0x89008900890089U, 0x8c008c008c0089U, 0x8e008e008c008cU,
  0x8f008e008e008eU, 0x8f008f008f008fU, 0x90009000900090U, 0x91009100910090U,
  0x93009300910091U, 0x95009300930093U, 0x95009500950095U, 0x97009700970097U,
  0x99009900990097U, 0x9b009b00990099U, 0x9c009b009b009bU, 0x9c009c009c009cU,
  0x1000100010001U, 0x9000900090001U, 0xa000a00090009U, 0xb000a000a000aU,
  0xb000b000b000bU, 0xc000c000c000cU, 0xe000e000e000cU, 0x120012000e000eU,
  0x13001200120012U, 0x13001300130013U, 0x14001400140014U, 0x15001500150014U,
  0x19001900150015U, 0x1c001900190019U, 0x1c001c001c001cU, 0x1e001e001e001eU,
  0x1f001f001f001eU, 0x200020001f001fU, 0x21002000200020U, 0x21002100210021U,
  0x23002300230023U, 0x24002400240023U, 0x26002600240024U, 0x28002600260026U,
  0x28002800280028U, 0x2a002a002a002aU, 0x2b002b002b002aU, 0x320032002b002bU,
  0x34003200320032U, 0x34003400340034U, 0x37003700370037U, 0x38003800380037U,
  0x39003900380038U, 0x3b003900390039U, 0x3b003b003b003bU, 0x3d003d003d003dU,
  0x3e003e003e003dU, 0x420042003e003eU, 0x47004200420042U, 0x47004700470047U,
  0x48004800480048U, 0x49004900490048U, 0x4a004a00490049U, 0x4b004a004a004aU,
  0x4b004b004b004bU, 0x4e004e004e004eU, 0x5000500050004eU, 0x52005200500050U,
  0x53005200520052U, 0x53005300530053U, 0x54005400540054U, 0x58005800580054U,
  0x59005900580058U, 0x5c005900590059U, 0x5c005c005c005cU, 0x5d005d005d005dU,
  0x5e005e005e005dU, 0x610061005e005eU, 0x62006100610061U, 0x62006200620062U,
  0x63006300630063U, 0x67006700670063U, 0x68006800670067U, 0x69006800680068U,
  0x69006900690069U, 0x6a006a006a006aU, 0x7000700070006aU, 0x71007100700070U,
  0x72007100710071U, 0x72007200720072U, 0x75007500750075U, 0x78007800780075U,
  0x7a007a00780078U, 0x7b007a007a007aU, 0x7b007b007b007bU, 0x7c007c007c007cU,
  0x7e007e007e007cU, 0x800080007e007eU, 0x81008000800080U, 0x81008100810081U,
  0x82008200820082U, 0x85008500850082U, 0x87008700850085U, 0x88008700870087U,
  0x88008800880088U, 0x89008900890089U, 0x8d008d008d0089U, 0x8e008e008d008dU,
  0x91008e008e008eU, 0x91009100910091U, 0x93009300930093U, 0x94009400940093U,
  0x95009500940094U, 0x98009500950095U, 0x98009800980098U, 0x99009900990099U,
  0x9a009a009a0099U, 0x10001009a009aU, 0x8000100010001U, 0x8000800080008U,
  0xb000b000b000bU, 0xc000c000c000bU, 0xd000d000c000cU, 0xe000d000d000dU,
  0xe000e000e000eU, 0x10001000100010U, 0x13001300130010U, 0x14001400130013U,
  0x15001400140014U, 0x15001500150015U, 0x19001900190019U, 0x1b001b001b0019U,
  0x1d001d001b001bU, 0x1e001d001d001dU, 0x1e001e001e001eU, 0x1f001f001f001fU,
  0x2300230023001fU, 0x24002400230023U, 0x25002400240024U, 0x25002500250025U,
  0x26002600260026U, 0x28002800280026U, 0x2b002b00280028U, 0x2d002b002b002bU,
  0x2d002d002d002dU, 0x2e002e002e002eU, 0x2f002f002f002eU, 0x350035002f002fU,
  0x37003500350035U, 0x37003700370037U, 0x38003800380038U, 0x3c003c003c0038U,
  0x3d003d003c003cU, 0x3e003d003d003dU, 0x3e003e003e003eU, 0x41004100410041U,
  0x43004300430041U, 0x44004400430043U, 0x45004400440044U, 0x45004500450045U,
  0x48004800480048U, 0x49004900490048U, 0x4b004b00490049U, 0x4d004b004b004bU,
  0x4d004d004d004dU, 0x4f004f004f004fU, 0x5000500050004fU, 0x53005300500050U,
  0x56005300530053U, 0x56005600560056U, 0x57005700570057U, 0x5b005b005b0057U,
  0x5d005d005b005bU, 0x5e005d005d005dU, 0x5e005e005e005eU, 0x5f005f005f005fU,
  0x6000600060005fU, 0x63006300600060U, 0x64006300630063U, 0x64006400640064U,
  0x66006600660066U, 0x68006800680066U, 0x6b006b00680068U, 0x6c006b006b006bU,
  0x6c006c006c006cU, 0x6e006e006e006eU, 0x7000700070006eU, 0x71007100700070U,
  0x78007100710071U, 0x78007800780078U, 0x79007900790079U, 0x7c007c007c0079U,
  0x7d007d007c007cU, 0x7e007d007d007dU, 0x7e007e007e007eU, 0x7f007f007f007fU,
  0x8100810081007fU, 0x82008200810081U, 0x83008200820082U, 0x83008300830083U,
  0x84008400840084U, 0x1000100010084U, 0x7000700010001U, 0x9000700070007U,
  0x9000900090009U, 0xb000b000b000bU, 0xd000d000d000bU, 0xf000f000d000dU,
  0x10000f000f000fU, 0x10001000100010U, 0x13001300130013U, 0x15001500150013U,
  0x19001900150015U, 0x1a001900190019U, 0x1a001a001a001aU, 0x1b001b001b001bU,
  0x1d001d001d001bU, 0x1e001e001d001dU, 0x20001e001e001eU, 0x20002000200020U,
  0x21002100210021U, 0x24002400240021U, 0x27002700240024U, 0x28002700270027U,
  0x28002800280028U, 0x29002900290029U, 0x2d002d002d0029U, 0x320032002d002dU,
  0x34003200320032U, 0x34003400340034U, 0x36003600360036U, 0x37003700370036U,
  0x38003800370037U, 0x39003800380038U, 0x39003900390039U, 0x3a003a003a003aU,
  0x3c003c003c003aU, 0x3d003d003c003cU, 0x3e003d003d003dU, 0x3e003e003e003eU,
  0x42004200420042U, 0x46004600460042U, 0x47004700460046U, 0x48004700470047U,
  0x48004800480048U, 0x49004900490049U, 0x4d004d004d0049U, 0x4e004e004d004dU,
  0x4f004e004e004eU, 0x4f004f004f004fU, 0x51005100510051U, 0x52005200520051U,
  0x56005600520052U, 0x58005600560056U, 0x58005800580058U, 0x5c005c005c005cU,
  0x5d005d005d005cU, 0x5f005f005d005dU, 0x61005f005f005fU, 0x61006100610061U,
  0x63006300630063U, 0x64006400640063U, 0x66006600640064U, 0x67006600660066U,
  0x67006700670067U, 0x6a006a006a006aU, 0x6b006b006b006aU, 0x6d006d006b006bU,
  0x6f006d006d006dU, 0x6f006f006f006fU, 0x71007100710071U, 0x73007300730071U,
  0x74007400730073U, 0x75007400740074U, 0x75007500750075U, 0x79007900790079U,
  0x7c007c007c0079U, 0x7e007e007c007cU, 0x7f007e007e007eU, 0x7f007f007f007fU,
  0x80008000800080U, 0x82008200820080U, 0x86008600820082U, 0x87008600860086U,
  0x87008700870087U, 0x89008900890089U, 0x8a008a008a0089U, 0x8c008c008a008aU,
  0x8e008c008c008cU, 0x8e008e008e008eU, 0x8f008f008f008fU, 0x9200920092008fU,
  0x93009300920092U, 0x94009300930093U, 0x94009400940094U, 0x1000100010001U,
  0xb000b000b0001U, 0xd000d000b000bU, 0xe000d000d000dU, 0xe000e000e000eU,
  0xf000f000f000fU, 0x1000100010000fU, 0x14001400100010U, 0x15001400140014U,
  0x15001500150015U, 0x16001600160016U, 0x17001700170016U, 0x1d001d00170017U,
  0x1e001d001d001dU, 0x1e001e001e001eU, 0x1f001f001f001fU, 0x2000200020001fU,
  0x22002200200020U, 0x23002200220022U, 0x23002300230023U, 0x24002400240024U,
  0x27002700270024U, 0x29002900270027U, 0x2c002900290029U, 0x2c002c002c002cU,
  0x2d002d002d002dU, 0x2e002e002e002dU, 0x300030002e002eU, 0x31003000300030U,
  0x31003100310031U, 0x35003500350035U, 0x37003700370035U, 0x3b003b00370037U,
  0x3d003b003b003bU, 0x3d003d003d003dU, 0x40004000400040U, 0x41004100410040U,
  0x42004200410041U, 0x43004200420042U, 0x43004300430043U, 0x44004400440044U,
  0x45004500450044U, 0x48004800450045U, 0x49004800480048U, 0x49004900490049U,
  0x4b004b004b004bU, 0x4d004d004d004bU, 0x4f004f004d004dU, 0x50004f004f004fU,
  0x50005000500050U, 0x52005200520052U, 0x55005500550052U, 0x57005700550055U,
  0x58005700570057U, 0x58005800580058U, 0x5b005b005b005bU, 0x5c005c005c005bU,
  0x5d005d005c005cU, 0x63005d005d005dU, 0x63006300630063U, 0x64006400640064U,
  0x66006600660064U, 0x68006800660066U, 0x69006800680068U, 0x69006900690069U,
  0x6a006a006a006aU, 0x6f006f006f006aU, 0x710071006f006fU, 0x73007100710071U,
  0x73007300730073U, 0x74007400740074U, 0x75007500750074U, 0x76007600750075U,
  0x77007600760076U, 0x77007700770077U, 0x7b007b007b007bU, 0x7d007d007d007bU,
  0x7f007f007d007dU, 0x80007f007f007fU, 0x80008000800080U, 0x82008200820082U,
  0x84008400840082U, 0x87008700840084U, 0x88008700870087U, 0x88008800880088U,
  0x89008900890089U, 0x8b008b008b0089U, 0x8c008c008b008bU, 0x1008c008c008cU,
  0x1000100010001U, 0x8000800080008U, 0x9000900090008U, 0xd000d00090009U,
  0xe000d000d000dU, 0xe000e000e000eU, 0xf000f000f000fU, 0x1000100010000fU,
  0x14001400100010U, 0x19001400140014U, 0x19001900190019U, 0x1a001a001a001aU,
  0x1b001b001b001aU, 0x1d001d001b001bU, 0x1e001d001d001dU, 0x1e001e001e001eU,
  0x20002000200020U, 0x21002100210020U, 0x22002200210021U, 0x24002200220022U,
  0x24002400240024U, 0x25002500250025U, 0x2a002a002a0025U, 0x2b002b002a002aU,
  0x2c002b002b002bU, 0x2c002c002c002cU, 0x2f002f002f002fU, 0x3000300030002fU,
  0x33003300300030U, 0x34003300330033U, 0x34003400340034U, 0x35003500350035U,
  0x3a003a003a0035U, 0x3f003f003a003aU, 0x40003f003f003fU, 0x40004000400040U,
  0x43004300430043U, 0x44004400440043U, 0x45004500440044U, 0x46004500450045U,
  0x46004600460046U, 0x47004700470047U, 0x49004900490047U, 0x4a004a00490049U,
  0x4e004a004a004aU, 0x4e004e004e004eU, 0x4f004f004f004fU, 0x5100510051004fU,
  0x52005200510051U, 0x54005200520052U, 0x54005400540054U, 0x55005500550055U,
  0x57005700570055U, 0x5a005a00570057U, 0x5d005a005a005aU, 0x5d005d005d005dU,
  0x5f005f005f005fU, 0x6200620062005fU, 0x63006300620062U, 0x64006300630063U,
  0x64006400640064U, 0x65006500650065U, 0x66006600660065U, 0x6b006b00660066U,
  0x6c006b006b006bU, 0x6c006c006c006cU, 0x6e006e006e006eU, 0x6f006f006f006eU,
  0x710071006f006fU, 0x74007100710071U, 0x74007400740074U, 0x75007500750075U,
  0x76007600760075U, 0x7a007a00760076U, 0x7b007a007a007aU, 0x7b007b007b007bU,
  0x7c007c007c007cU, 0x7d007d007d007cU, 0x820082007d007dU, 0x83008200820082U,
  0x83008300830083U, 0x85008500850085U, 0x86008600860085U, 0x89008900860086U,
  0x8a008900890089U, 0x8a008a008a008aU, 0x8d008d008d008dU, 0x8f008f008f008dU,
  0x920092008f008fU, 0x93009200920092U, 0x93009300930093U, 0x94009400940094U,
  0x9a009a009a0094U, 0x9b009b009a009aU, 0x9c009b009b009bU, 0x9c009c009c009cU,
  0x9d009d009d009dU, 0x9e009e009e009dU, 0x9f009f009e009eU, 0xa0009f009f009fU,
  0xa000a000a000a0U, 0x1000100010001U, 0x9000900090001U, 0xc000c00090009U,
  0xd000c000c000cU, 0xd000d000d000dU, 0xe000e000e000eU, 0x1300130013000eU,
  0x15001500130013U, 0x16001500150015U, 0x16001600160016U, 0x17001700170017U,
  0x18001800180017U, 0x1a001a00180018U, 0x1b001a001a001aU, 0x1b001b001b001bU,
  0x1d001d001d001dU, 0x1f001f001f001dU, 0x210021001f001fU, 0x22002100210021U,
  0x22002200220022U, 0x26002600260026U, 0x27002700270026U, 0x29002900270027U,
  0x2a002900290029U, 0x2a002a002a002aU, 0x2e002e002e002eU, 0x3000300030002eU,
  0x31003100300030U, 0x32003100310031U, 0x32003200320032U, 0x33003300330033U,
  0x39003900390033U, 0x3b003b00390039U, 0x3e003b003b003bU, 0x3e003e003e003eU,
  0x40004000400040U, 0x42004200420040U, 0x44004400420042U, 0x45004400440044U,
  0x45004500450045U, 0x49004900490049U, 0x4a004a004a0049U, 0x4b004b004a004aU,
  0x4c004b004b004bU, 0x4c004c004c004cU, 0x4d004d004d004dU, 0x5000500050004dU,
  0x51005100500050U, 0x52005100510051U, 0x52005200520052U, 0x55005500550055U,
  0x57005700570055U, 0x59005900570057U, 0x5a005900590059U, 0x5a005a005a005aU,
  0x5b005b005b005bU, 0x6000600060005bU, 0x61006100600060U, 0x62006100610061U,
  0x62006200620062U, 0x65006500650065U, 0x66006600660065U, 0x68006800660066U,
  0x69006800680068U, 0x69006900690069U, 0x6c006c006c006cU, 0x6f006f006f006cU,
  0x700070006f006fU, 0x71007000700070U, 0x71007100710071U, 0x72007200720072U,
  0x75007500750072U, 0x76007600750075U, 0x7a007600760076U, 0x7a007a007a007aU,
  0x7c007c007c007cU, 0x7d007d007d007cU, 0x7f007f007d007dU, 0x80007f007f007fU,
  0x80008000800080U, 0x83008300830083U, 0x84008400840083U, 0x86008600840084U,
  0x87008600860086U, 0x87008700870087U, 0x8b008b008b008bU, 0x8d008d008d008bU,
  0x900090008d008dU, 0x92009000900090U, 0x92009200920092U, 0x94009400940094U,
  0x96009600960094U, 0x97009700960096U, 0x98009700970097U, 0x98009800980098U,
  0x9a009a009a009aU, 0x9f009f009f009aU, 0xa000a0009f009fU, 0xa100a000a000a0U,
  0xa100a100a100a1U, 0xa300a300a300a3U, 0xa400a400a400a3U, 0xa600a600a400a4U,
  0xa800a600a600a6U, 0xa800a800a800a8U, 0xaa00aa00aa00aaU, 0xac00ac00ac00aaU,
  0xad00ad00ac00acU, 0xae00ad00ad00adU, 0xae00ae00ae00aeU, 0x101010101010101U,
  0x101010101010101U, 0x18101f400000001U, 0x17c01b301db01feU, 0x1a4018b01860163U,
  0x177014f0186018bU, 0x1b801950163U, 0x2040000090e0fU, 0x807010f0000000cU,
  0xf04000901000002U, 0xb00000f00050005U, 0x20900000000U, 0xd0700000d000a00U,
  0x800000000050308U, 0x800000006020000U, 0xc00000001000e05U, 0x7000f0000020706U,
  0x202070000000bU, 0x407000000U, 0x4000a0a0e000000U, 0x80a07U,
  0x406000000040803U, 0x100000401070000U, 0x304090000000400U, 0x3060000000f0100U,
  0x30504U, 0x40800000a060700U, 0x4000007010000U, 0x2000d040a00U,
  0xb0004060000U, 0x10400000a000b05U, 0xd00000001000e00U, 0x102070d04000009U,
  0x205000c0a000903U, 0x90009000e00000aU, 0x4000000000a0200U, 0xa000a0000000000U,
  0x20b00000d040000U, 0x7000e00020000U, 0x7080307000e0000U, 0x10f0000U,
  0x1000602080700U, 0xf040a00000400U, 0x10000050000U, 0xf0e0c0001000b03U,
  0x409000006000000U, 0xa0600000600U, 0xa050e000b000fU, 0x2000e000f0000U,
  0xd05060500070900U, 0x4000000U, 0x80e010d0000060dU, 0x108000909020f04U,
  0x201U, 0x90607000000U, 0x80a00U, 0x80700000002U,
  0xf0a070006080600U, 0x40007000e00U, 0xb0c0d08050000U, 0xb000a0000040000U,
  0xf00060005000600U, 0x40000000400U, 0x90001000404U, 0x40000040e070500U,
  0xb000a0004U, 0xe0006000e050000U, 0x40006000b0000U, 0x40b000a0f00U,
  0x50c0000000c0400U, 0xe0009060409U, 0x6000000000d05U, 0x2060700U,
  0xb040000000400U, 0x100090000000cU, 0xf00090007000504U, 0x20d000000U,
  0x4000e0d0f070700U, 0x8000f000608U, 0x1040e0000060000U, 0xa000a000cU,
  0x2000904060e00U, 0x1040a0008U, 0x8050d0000U, 0xc04080e000004U,
  0x3060000050002U, 0xb000d090d0000U, 0x8020a03U, 0x4070000060000U,
  0x4000006000a0c00U, 0xf00000002U, 0x108000000050801U, 0xd040fU,
  0x80700020505U, 0x50a0700010800U, 0xd0600000b000000U, 0xc0803000000U,
  0xf000001000a000fU, 0xa040005000d00U, 0x409000bU, 0x20c0504020d0006U,
  0x80000000808000aU, 0xc000b0d0000U, 0x5000d00000b000aU, 0x4040e0700000009U,
  0xd0000080b09U, 0x8040005000000U, 0xc000000000a09U, 0x1000b0d0f010400U,
  0x900070a000000U, 0x500080f00000600U, 0x40c0000030509U, 0x107000004080000U,
  0xc08000003000000U, 0x8000500000000U, 0x60507000a000b00U, 0x400070000000900U,
  0x90a000000U, 0x609000009040c04U, 0x70000050000000eU, 0x1000000050a0e00U,
  0x100010000000f00U, 0x804000d0a0105U, 0xb090801060000U, 0xc000000000e0009U,
  0x100000d000002U, 0x700040000000a04U, 0x4000009000b02U, 0x2090dU,
  0xd00000100000100U, 0x400090a000b00U, 0xa050700U, 0x800060e00000102U,
  0x7000e050000U, 0xb050000000e05U, 0x8000c000400U, 0x7040a020003U,
  0xb0006000b0c00U, 0xb0e0405000000U, 0x3000d000b000000U, 0xe04000600000007U,
  0xd00000a0e030106U, 0x500030800000aU, 0x10800050d00U, 0xd00040000080000U,
  0x102000002U, 0x300030000050500U, 0x40100000b00000bU, 0xe0e03000dU,
  0xb060307050000U, 0xa000e00000000U, 0x8000b0004090700U, 0xe000000000d04U,
  0xd050005000100U, 0xa000900000b0008U, 0xa000002000b00U, 0x406090b05U,
  0x9000e00U, 0xd09070c04000e00U, 0x30009020108U, 0x4000f0300000000U,
  0xa05010b00U, 0x40008000000U, 0xf00000600080a01U, 0x90c030000000aU,
  0x70400U, 0x3000d00040bU, 0xe0e0c04010e00U, 0x3070600000000U,
  0xf00000900000000U, 0x3010808U, 0x7000000010e00U, 0x6020e0000000eU,
  0xd000005000900U, 0x20d0a00000907U, 0x8060003000000U, 0xc0c0004010700U,
  0xc04000600000000U, 0xf000908080d05U, 0xf0b000a00000bU, 0xb000000040000U,
  0xd05030000000007U, 0x40000000f000008U, 0x40000000106000aU, 0x600000e0c000109U,
  0xb0b0008U, 0x8000000000a0002U, 0x108040d0000U, 0x70c000000010200U,
  0x200070009060000U, 0x50000000b000802U, 0xf000b0000000700U, 0x200000000030208U,
  0x600020009000500U, 0xa08040f00000008U, 0x70000000c000600U, 0x90000040eU,
  0x8040801000500U, 0x20803060b02010dU, 0x606U, 0x6000b000000U,
  0x30007000e060000U, 0x50000000e000000U, 0x604080002U, 0xe0000000904060fU,
  0x900000a05000004U, 0xf0e0900000800U, 0x800000e04000000U, 0xf000b0e04060000U,
  0x700000008U, 0xa05040208U, 0xb070000000e000eU, 0x40001000908U,
  0xf00070b05040000U, 0xb00000300000000U, 0xd00000000000a00U, 0x609000f000001U,
  0x8000f000b00U, 0x701040c0000050dU, 0x30008070208U, 0x70003000f0000U,
  0xa000b08000a00U, 0xf050000030500U, 0x30600080f0000U, 0x40900000b07U,
  0xb000d0000000008U, 0x70e0008070b0000U, 0x4000000U, 0x601000004000200U,
  0x70c090000U, 0x4050d000d000a00U, 0x700000008060006U, 0x60605U,
  0x100000406010000U, 0x2070000040f0000U, 0xa0003080000U, 0x50002000b0000U,
  0x1000e000002000eU, 0xe0203080e06U, 0xb0206000f0000U, 0x100050307000000U,
  0x50002U, 0x2000b000c0000U, 0xf040305010c00U, 0xe0000000d0f0008U,
  0xb060600000f00U, 0x4040207U, 0xd0008000b0400U, 0x400000405060000U,
  0x4080000000dU, 0x30d0400U, 0x206040405U, 0x8000007000f0bU,
  0x8000d0000U, 0x40000000000040aU, 0x7000c0800000a05U, 0xb0c000000U,
  0x50f08010601000eU, 0xa00000000050200U, 0x4080000000d0d00U, 0xd0000000bU,
  0xc0000000009080aU, 0x200000700U, 0xf000409060f04U, 0xa000000080d0800U,
  0x40d000000070008U, 0xc000500040000U, 0xb0500040700U, 0xd00060c0fU,
  0x2000d00000c0f00U, 0x8000300000b0a00U, 0x8040b0a0f090000U, 0x6090000U,
  0xf0006000000000cU, 0x3000f0007010906U, 0xb06000002000300U, 0x30a0f000300U,
  0xd00000b00000400U, 0x4000000030f000cU, 0x80a0d02000404U, 0xd0008U,
  0x202020000000eU, 0x5000000000b0d07U, 0x50000000406U, 0x407000900080504U,
  0x7000d0008000004U, 0x1080000000000U, 0xe000c000c000400U, 0xe00030504000000U,
  0x10000000e0004U, 0xa00000b050aU, 0x50a00000c000bU, 0x801040d00060000U,
  0x400090d020604U, 0xd0a07000000U, 0x60e08060e0000U, 0xa0000000b000000U,
  0xf060000000bU, 0x3070500000700U, 0x2000007090008U, 0x80bU,
  0xf000d00000108U, 0xa04000b000005U, 0x604000006U, 0x80000050404090cU,
  0x909050000000700U, 0x40000000bU, 0x2000f0e040000U, 0xc0008000f00000cU,
  0xa00000c00000000U, 0x3040a01060d00U, 0x40b0400U, 0x503050600010709U,
  0x500000c000000U, 0x402080000080000U, 0x80400000001U, 0x40a070000000104U,
  0x1010e020004U, 0x900000000000409U, 0x400000406000000U, 0x4000f0000040000U,
  0x60001000905000dU, 0xd0300000000000fU, 0x100000100000406U, 0x805000000070900U,
  0x80b040000000008U, 0x506000000000004U, 0xc00030005070000U, 0xc0c0a0600000004U,
  0x0U, 0x3000308060d000dU, 0x400000001050001U, 0xb00070202U,
  0xe000d00000300U, 0xb0302000005U, 0x400000104000001U, 0x6070a0f00000000U,
  0x80004090003000cU, 0x60400000a000600U, 0x80b000000000004U, 0x3000104000000U,
  0x9040e0800000002U, 0x400000006000000U, 0x7000b050000U, 0xd00000401000000U,
  0x6000d05U, 0x40700U, 0x20b000900040704U, 0x5000d000400U,
  0x80c010c000200U, 0xa000900000b0000U, 0xa000f00U, 0x100000000U,
  0x300000002U, 0x3f82034000000004U, 0x3c5c43593da041b3U, 0x0U,
  0x3efb22d1bd0a00f2U, 0x3f6ffe8800000000U, 0x0U, 0x3f979f1d00000000U,
  0x3e77c6953e69d6a7U, 0x3f79374bbd1112bfU, 0xbf828e1aU, 0x3e03ab073e3fa542U,
  0x3d109ecc00000000U, 0x3e3fe4513f86dbe5U, 0x3e4045cc00000000U, 0x3f85deed00000000U,
  0x0U, 0x3e635e6bU, 0x0U, 0x3e6f5aa800000000U,
  0x3f7bc6a8U, 0x0U, 0x3f61a9fcU, 0x3e7742ddU,
  0x3e8b2c9500000000U, 0xbb8da0893e5abca6U, 0x3e83fdc23f86b671U, 0x0U,
  0x0U, 0xbcecfa2dU, 0x3fa7ae1400000000U, 0x3f88e560U,
  0x0U, 0x3eaa3b05bd165ed7U, 0x3f8acc3fU, 0x3e6bb91cU,
  0xbf864203U, 0x3f82c0833f909825U, 0x3fa106243e503104U, 0x0U,
  0x3f8654a4U, 0x3e8f4fcb3e78d078U, 0x0U, 0x3ea579da00000000U,
  0x3fa893753fa926e9U, 0xbf791729U, 0x0U, 0xbcda4f153e61bce0U,
  0x0U, 0x0U, 0x0U, 0x3fb48b433fc84e43U,
  0x3f3fdf3bU, 0x3e8e0a2c3ccd1360U, 0x3d4317793fb428f5U, 0x0U,
  0x0U, 0x3f8032f200000000U, 0xbbbfe1c23d859025U, 0x0U,
  0x3f94fdf300000000U, 0x3bb3475dU, 0x3ea3035d00000000U, 0xbcc7f4a93ea2547fU,
  0x0U, 0x3ea33d7bU, 0x3a895fa0U, 0x0U,
  0xbe05b22d3e8e9dc3U, 0x3f802652U, 0x3f92aeca3ee24cd8U, 0x0U,
  0x3fcfced900000000U, 0x3cfd98f73f8e09d8U, 0x3f845ebb3e8460d8U, 0x0U,
  0x0U, 0x0U, 0x3f8189373ea95eabU, 0x3ff21cacU,
  0x3d03f03f00000000U, 0x38e7e580U, 0x3edb261600000000U, 0x3e94ff29U,
  0x3ca9d39200000000U, 0x0U, 0x3d7b27db400b645aU, 0x3ebebd40U,
  0x3fddd2f1U, 0x0U, 0x3fa9374c00000000U, 0xbe142cbeU,
  0x3ea7ff48U, 0x3ea0445f00000000U, 0x3e9b71a5U, 0x4004cccdU,
  0x3d58aca900000000U, 0x3e8f2846U, 0x4033e264U, 0x3ef1b46dU,
  0x0U, 0x3c4c0d743cbb3c59U, 0x0U, 0x3ec6a449b967e589U,
  0x3f60e5603e8f2d02U, 0x3f849be73e38b2a1U, 0x3dff9d41U, 0x3f732bc13fee147bU,
  0x3e6bf58500000000U, 0x3f2b22d13f1fdf3bU, 0x0U, 0x3f257452U,
  0x3e54584aU, 0x3e5644c5U, 0x3fa0a3d73f576c8bU, 0x0U,
  0xbf76ab1700000000U, 0xbd0ee836U, 0x0U, 0x0U,
  0x3f44bc6aU, 0x3fc3e76cU, 0xbe0ff87100000000U, 0x3e8adc43U,
  0x3e60544200000000U, 0xbf836c8b3faee978U, 0x3f79581000000000U, 0x3f6f848000000000U,
  0x3e76674d00000000U, 0x0U, 0x3f61625100000000U, 0x3e8e56f600000000U,
  0xbd4afd023f8b765cU, 0x3e71fdb4U, 0x3f88e0fb00000000U, 0x3e4403a2U,
  0x0U, 0x0U, 0x3cb9f9623ecbb318U, 0x3f9560413f9e353fU,
  0x3e8473c800000000U, 0x0U, 0xbd68ffd8U, 0x3fc2d0e500000000U,
  0x3f8da6afbe0ee5b1U, 0x0U, 0x3e986e6c00000000U, 0x0U,
  0x3e8682f8U, 0x3f8620ce00000000U, 0x3e8d16fcU, 0x3e9c0214U,
  0x4023b7123f8963fcU, 0x3f908eddU, 0x0U, 0x3fcf5c29U,
  0x3e8be80100000000U, 0xbe1e0419U, 0x3fd91687U, 0x3fa0418900000000U,
  0x4012e148U, 0x3f961fb200000000U, 0x3e9196b100000000U, 0x4033972b00000000U,
  0x402af1aa3ebe7635U, 0x0U, 0x3f9ed64900000000U, 0x403471c800000000U,
  0x4007ef9e00000000U, 0x0U, 0x3e20a1173eca4f01U, 0x3eb843c600000000U,
  0x3e49f36c3f5b4395U, 0x3e90fe5dU, 0x0U, 0x3b49558bU,
  0x0U, 0x3ca3482a00000000U, 0x3d010624U, 0x3eca2d0100000000U,
  0x3f8dcc2a3e677692U, 0x3bbdd576bd38248dU, 0x3f6999993f90b3b1U, 0x3dff9d413e8fd319U,
  0xbd7b411000000000U, 0x3defab5f3e35b0f0U, 0x3f1ccccdU, 0x0U,
  0x0U, 0x0U, 0x0U, 0x3f88d4fe3e8b315eU,
  0x3d947af8U, 0xbf83f3b6U, 0xbb20b0723f74dd2fU, 0x0U,
  0x0U, 0x3f5126e9bf63ba0eU, 0x0U, 0x3e7fbe1c00000000U,
  0xbd4ab66eU, 0x0U, 0xbd2537ed3f94fdf3U, 0x3f36872bU,
  0x3fb49ba53e8446feU, 0x3f87b468U, 0x3fa03d1eU, 0x3e5a3c24U,
  0xbd81d4d6U, 0x0U, 0x3e4eb28700000000U, 0x3e91afb4bc3f68c3U,
  0x3e8263c03f8cb0cbU, 0x0U, 0xbd043bdd00000000U, 0x0U,
  0x3f8cdd2fU, 0x3e8118f1U, 0xbf70d8753f7020c4U, 0x3e24b696U,
  0x3f5ba5e3U, 0x3f8a0c74U, 0x3c316368U, 0x0U,
  0x3be794e0U, 0x3cbe80de00000000U, 0xbe2a04baU, 0x3eaf5572U,
  0x3e5eb65bU, 0x0U, 0x3e9a2b563ea8f1bfU, 0xbd41fd2a3fb4c3aeU,
  0x0U, 0xbde9bce4bbd7ab90U, 0x3f9b126e00000000U, 0x3e7a763000000000U,
  0x0U, 0xbf5c41daU, 0x3e908c3800000000U, 0x3f9de5dbU,
  0x3f9cbc6aU, 0x3fe88e35U, 0x3e889a6d00000000U, 0x3f9fbe7700000000U,
  0xbd80d13600000000U, 0x0U, 0x3fabf7ce3f96708fU, 0x3eaff31d00000000U,
  0xbe1142a4U, 0x0U, 0x3f92019e3d3eae3cU, 0x0U,
  0x3f8b8ab000000000U, 0x3e992ca63e9877d4U, 0x3fa5d2f13c14a335U, 0x3e5a2f8fU,
  0x4009d1ddU, 0x3e91d23500000000U, 0x3f0bc8e5U, 0x0U,
  0x3f81687200000000U, 0xbf647ae200000000U, 0x3fcc08313e93ff1dU, 0xbf7a969c40631a9fU,
  0x0U, 0x0U, 0xbc49ba5cU, 0x0U,
  0x3e825f0a3da83b3cU, 0x3f83aa7200000000U, 0x0U, 0x3e8c593600000000U,
  0x3eb74ecd00000000U, 0x3d439a8c00000000U, 0x3e819ec8U, 0x3e9effb3U,
  0x3edd779aU, 0x3f9dc015U, 0x0U, 0x3cd916873ca3482aU,
  0xbf500fc100000000U, 0x0U, 0x3e8e52673eb748e6U, 0x3e66e2483f848621U,
  0x3f00ab1bU, 0x3bce37c4bc0aca98U, 0x3f65a1caU, 0x3f822c4bU,
  0xbd7d4d5bU, 0x0U, 0x3f7645a100000000U, 0x0U,
  0xbd326e983f621bb5U, 0x3f84336d3e2dea70U, 0x3f45c28f00000000U, 0x3f78b43900000000U,
  0x0U, 0x0U, 0x3f9147ae3faf08a4U, 0x3e2540c73c4dfb46U,
  0x3f3a1cac00000000U, 0xbd41ee0b00000000U, 0x3ffd2f1a00000000U, 0x3e3f1a94ba812e7aU,
  0x0U, 0x0U, 0x3e78b82600000000U, 0xbd41296f3e866f03U,
  0x0U, 0xbc7d526500000000U, 0x0U, 0xbd03c7eb4041dc30U,
  0x3f84696ebc5c6574U, 0x3f8a0c4900000000U, 0x3e85e42900000000U, 0x0U,
  0x3f84fd513f859168U, 0x0U, 0x3eeab83a00000000U, 0x3e88d9263e8e9381U,
  0x3e6107ee00000000U, 0x3f8c3a8400000000U, 0x400343953fb52f1aU, 0xbcbb1dc6U,
  0x0U, 0x0U, 0x3f72b021bf822116U, 0x0U,
  0xbc75213f3e5be39eU, 0x0U, 0x3fb322d03f84f25bU, 0x3f94189300000000U,
  0x0U, 0x4012353fbac2b7b0U, 0x0U, 0x3f9a918e00000000U,
  0x0U, 0x3e73d21300000000U, 0x3e79e1bc3cd9cc03U, 0x0U,
  0x3ca7586100000000U, 0x3f95fa653ee1382aU, 0x3e99210dbd00973dU, 0x0U,
  0x0U, 0x3e98d9ae00000000U, 0x3fb010623e85f77eU, 0x3e9bf7c400000000U,
  0x3dae76c8U, 0x0U, 0x3e9c7c903e16f898U, 0x3ea5214300000000U,
  0x3e93ba7b3fd95810U, 0x0U, 0x0U, 0x3ee471c2U,
  0x3fe8624e00000000U, 0x3f00ddf2U, 0x0U, 0x3bac58da3f86396aU,
  0x3f85b581U, 0x3f8c232000000000U, 0x3fa428f500000000U, 0x3eb910e300000000U,
  0x0U, 0x3f96028aU, 0x3eb6d53cU, 0x3ea33f59U,
  0x402ae1473dac8639U, 0x3eb8e59500000000U, 0x3ee329ed00000000U, 0xbdd851ecU,
  0x0U, 0x3d01062400000000U, 0x3ed2cac300000000U, 0xbd98064d3f88624eU,
  0x3f85da593e7875b7U, 0x3f0cac083f56872bU, 0x3c98cff300000000U, 0xbd108598U,
  0x0U, 0xbbb6964bU, 0x3e40b02200000000U, 0x3e345f11U,
  0x3f86ac39U, 0x3f8ab02100000000U, 0x3e95676a00000000U, 0x0U,
  0x3d9e1b41U, 0x3e95eb2f3e84844eU, 0x0U, 0x3e8e962d00000000U,
  0x3bbdd5763f6c359eU, 0x3e6864e8bca8c359U, 0xbd5c14cc3e51006aU, 0x0U,
  0x3e0ff4fdU, 0x0U, 0x0U, 0x3e3aaf0cU,
  0xbd9d186b3c6ee836U, 0x3e90af5a00000000U, 0x3fbbb645U, 0x0U,
  0x3f80427500000000U, 0x0U, 0x3e7affaebba21b6aU, 0x3e821f123f8a4e7eU,
  0x3e28db79U, 0x3e4ee4e3U, 0x0U, 0x3e6d127d3fdba5e3U,
  0x3e8e60f600000000U, 0x0U, 0x3f83126eU, 0x3f9499ad00000000U,
  0xbd924b4eU, 0x3e783bce3ea70cf4U, 0x3f7cccea3e5bc4b8U, 0x0U,
  0xbe0a17a23f897e2eU, 0x0U, 0x3d9b6e6f00000000U, 0xbbd1d75bU,
  0x3e9b88b200000000U, 0x3e889943U, 0x0U, 0x3f83b0f9U,
  0xbc4a1f3200000000U, 0x3f96666aU, 0xbf849add00000000U, 0x3e9ee35700000000U,
  0x3ddc863900000000U, 0x0U, 0x3e4ada24U, 0x3f854fdfU,
  0x3e5d9c2a3e60986bU, 0xbf762b7b3f5b645aU, 0x3e91eec9U, 0x0U,
  0x3e5ace63U, 0x3c59cc02U, 0x0U, 0x3e8a47083f9b645aU,
  0x0U, 0x3d6facd200000000U, 0xbe2461ad3f8b5cb7U, 0x3eba8e5bU,
  0x3e91c18300000000U, 0x400a3a1c3fc46a7fU, 0x0U, 0x3e891e6f00000000U,
  0x0U, 0x3e8e07cdU, 0x3fd968734033e264U, 0x3e9b28f2U,
  0x0U, 0x3ef1b46dU, 0x3f9f0ab4U, 0x0U,
  0x3b99fcabU, 0x3e8f410e3ec027d6U, 0x3f4fdf3b3e47ffc3U, 0x3b82f004U,
  0xbd6c771abd95cf2aU, 0x0U, 0x3f89893700000000U, 0x3d2115443e24d31bU,
  0x3e5ba3223e936daaU, 0x3e49670900000000U, 0x3f4f7cad00000000U, 0x0U,
  0x0U, 0x3f50e5603f83662fU, 0x0U, 0x3e31c8e1U,
  0x3def0a3e00000000U, 0xbb886da500000000U, 0x3ff8b439U, 0x0U,
  0xbf6e349fbbe46e47U, 0x3fe49ba53e9a41a7U, 0x3e48d074U, 0x3e4a777cU,
  0xbe1d4202bf749b05U, 0x3ec5cf8300000000U, 0x3fbd2f1a3e625d2dU, 0x0U,
  0x0U, 0x0U, 0x3eb1e03eU, 0x3ea9e1e600000000U,
  0x0U, 0x3e6ef567U, 0x3e3b7fb7U, 0x3e634fcb3f9c6a7fU,
  0x3caebfe200000000U, 0x0U, 0x3e6258c03e63d63dU, 0x3fa6872bU,
  0x0U, 0x3fa872b000000000U, 0x3e8c914fU, 0x3fcf0ce200000000U,
  0x3fcb22d1U, 0x3be7bd33U, 0x3e9eeb7f00000000U, 0x3fd10c3cU,
  0x3ea3f3c8U, 0x3f00498d00000000U, 0x3fd33099U, 0x0U,
  0x3e8ee9293e9877d4U, 0xbf7ca060U, 0xbe28be4fU, 0x3f7acc8bU,
  0x3df7cc54U, 0x3f6de46400000000U, 0x405970a400000000U, 0x3b8cd6e23ff84189U,
  0x3e9ece84U, 0x0U, 0x3ebbedcb3f8df2e1U, 0x3f8e147b00000000U,
  0x3ee843d900000000U, 0x0U, 0x0U, 0x3d5461ac3eb14131U,
  0x3e96730340339131U, 0x0U, 0x0U, 0x3e84e735U,
  0x3f0b1edbU, 0x3ed57dd53f8f5075U, 0x0U, 0x3d01062400000000U,
  0x3ad6409700000000U, 0x3fa1ba5e3fe12d7bU, 0x3f8323d93e434f64U, 0x3eedd2f13f042a9dU,
  0x0U, 0x3f2b22d13e1b01bcU, 0x0U, 0x3f80627ebd7df8c1U,
  0x3e509e2f00000000U, 0x0U, 0x3e3aaf0c3e3eece0U, 0xbc4daa9d00000000U,
  0x3e0ae008U, 0x0U, 0xbd127db700000000U, 0x0U,
  0xbf744919be0cdaaaU, 0x3f7624dd3e87eb8bU, 0x0U, 0x3eaf84ee3fcd8106U,
  0x0U, 0x0U, 0x3e2fc8ee3e34f337U, 0x0U,
  0x3f77fcccU, 0x3e5f58ca3f8761b1U, 0x0U, 0x3e620147U,
  0x3e90d98f00000000U, 0x3e2904bbbc39a8b9U, 0x3f8818e200000000U, 0x3f6171303f632700U,
  0x0U, 0x0U, 0x3e9e5e3700000000U, 0x3f891a583e980a7aU,
  0x3e8674d13fc47ae1U, 0x0U, 0x0U, 0x3faea47f00000000U,
  0x3ffcfdf400000000U, 0x0U, 0x3eae935b3e9f0d57U, 0xbe1a1cacU,
  0x3e70b210U, 0xbdb2b7b13e13475dU, 0x3efecf1fU, 0x0U,
  0x400193b800000000U, 0x0U, 0x3e9a27f3U, 0x3e92be24U,
  0x3ec5ab7d3ea520aeU, 0xbb29d39200000000U, 0x3e90192c00000000U, 0x0U,
  0x3e76272bU, 0x403bbe76U, 0x3ed37dd7U, 0x4002c8b4U,
  0x3f3f3b6400000000U, 0x3ed8ae7300000000U, 0x3e8de8983e8f761aU, 0x3cb0d6403f859168U,
  0x0U, 0x0U, 0x40294d96U, 0xbf73a35e3eca4f01U,
  0x0U, 0x0U, 0x3cd49d31U, 0x3f8d7fa43be74436U,
  0x3e6988633e8ea17cU, 0xbd7755dc3e7c2c07U, 0x3f7958103e3c7502U, 0xbf807bfc3e644421U,
  0x3f81aa84U, 0x0U, 0x0U, 0x3f8554c700000000U,
  0x3f7efea7U, 0xbe0b52b5U, 0x3e5ea7193e69cfa5U, 0x3f8d1eb83e3c34b5U,
  0x0U, 0x0U, 0x0U, 0xbd805839U,
  0xbdff5eaeU, 0x3e439ac300000000U, 0xbd445f283fb926e9U, 0x3f8a6e9700000000U,
  0x0U, 0x3fee45a23f8c3adaU, 0x0U, 0x3f88b43600000000U,
  0x3e8d8d753f823538U, 0x0U, 0x3e8ccb923b0cd6e2U, 0xbf8312c0U,
  0x0U, 0x3eb9e79d00000000U, 0xbe0d0f99U, 0x3ea2ae6fU,
  0x3f88d6d3U, 0x0U, 0x3e8473c83fec842cU, 0x3f8d6c8fbbd93edbU,
  0x3f6c00b53f6edb7fU, 0x0U, 0x0U, 0x3fb947ae00000000U,
  0x3f87fea93e98ddf8U, 0x0U, 0xbf783724U, 0x3e7b5a3500000000U,
  0x0U, 0x3e1598f83f93cf5eU, 0x3f01a70e3db7741bU, 0x3f86ae6bU,
  0x0U, 0x0U, 0x3ebd50af402d306aU, 0xbf82592b00000000U,
  0x3e93ae4900000000U, 0x4020587000000000U, 0x0U, 0x3fd56cf200000000U,
  0x3f8883123fa01062U, 0x0U, 0x3e8f73bdU, 0x3e9dcafcU,
  0x3eb8363500000000U, 0x3ea2a38300000000U, 0x3eb9a4a8U, 0x40575c2900000000U,
  0x3fbcac083ed2cac3U, 0x0U, 0x0U, 0x3f5a0b36U,
  0xbc1893753f516872U, 0x0U, 0x3f11ecf03edb90cbU, 0x3c2684a5U,
  0x3f808bd03f80b3dcU, 0x0U, 0x0U, 0x3cf5c28f00000000U,
  0x3ac3590200000000U, 0x3e8aff753f8e3d7cU, 0xbd38248d3e51aaaaU, 0x3dff9d41bd860e2eU,
  0x3f86fa4400000000U, 0x3e5d1e2d00000000U, 0x0U, 0x3f574bc6U,
  0x3f83f7c93e90a64eU, 0x0U, 0xbdfc124600000000U, 0xbf80a74eU,
  0x3dc0c02700000000U, 0x3e7997cb00000000U, 0xbf8102aeU, 0x0U,
  0x3e729d953f7f4e3eU, 0xbcc03c7f3e8e6253U, 0x0U, 0x3f87100dU,
  0x0U, 0x3f97df3bbe10f848U, 0x3fa1062500000000U, 0x3eca4414U,
  0x0U, 0x3ec13084bc178d50U, 0x3e3f399eU, 0x3ff68f3f3f8db3d1U,
  0xbf84165fU, 0xbd8877bb3fad9168U, 0x3e68696f00000000U, 0x3e66e4abU,
  0x0U, 0x3ffd1eb800000000U, 0x40011eb800000000U, 0x0U,
  0x0U, 0xbd4964abU, 0x3ebb01f300000000U, 0x3cbff5ebbd26bc1aU,
  0x3e8a03c5U, 0x0U, 0x3e7aa45a3fa8a3d7U, 0x0U,
  0x3f87231500000000U, 0x3eb39f7fU, 0x4010cccd00000000U, 0x3e734debU,
  0x3e966bbfU, 0x3fea7efa3febd70aU, 0x3d06acfaU, 0x3e9cdad9U,
  0x0U, 0x3e90216aU, 0x3ecc76d0U, 0x0U,
  0x3e8c284dU, 0x3c51eb853f973d6fU, 0x3f88008f3fc0f5c2U, 0x0U,
  0x0U, 0x3fa15810U, 0x3e9fd0b2U, 0x3eceac1eU,
  0x3fbc5a1cU, 0x3dd49ba6400c9374U, 0x0U, 0x3fa3dff800000000U,
  0xbc0597b63c82fe44U, 0x3f8be76cU, 0x3f8bf7ceU, 0x3f93cbc2U,
  0x0U, 0x4026722c3f33b545U, 0x3ca78acaU, 0x3eca4f0100000000U,
  0x0U, 0x0U, 0x3bc9a060U, 0xbcb237243e677692U,
  0xbe12e510b90d278cU, 0x3e71659400000000U, 0x3f86a7ef3e391d66U, 0x3f8570a43e9458b9U,
  0xbd7d8ee43f845382U, 0x3f82d0e53f608312U, 0x3f781062U, 0x0U,
  0x0U, 0x0U, 0x0U, 0x3e6c0310U,
  0x3f851eb8U, 0x0U, 0x3fa53f7d00000000U, 0x3ee6958eU,
  0xbf700b583e7ba10cU, 0x3f869dc6U, 0x0U, 0x3f5d2ec7U,
  0x0U, 0x3fb54fdf3ea8ab3eU, 0xbcc3f03fbf762671U, 0x3fab53f7bc587535U,
  0x0U, 0x3f91338f00000000U, 0x3c7939d13f950e56U, 0x3e66ef78U,
  0x0U, 0xbbed40c03faa3ed9U, 0x0U, 0x3fb3f7cf3e7726f2U,
  0x0U, 0x3e974321U, 0xbc3a4a0bU, 0x3eb75e1f00000000U,
  0x3f91e0f43fb2aba9U, 0x0U, 0x0U, 0x3fa45d34bbb0c216U,
  0x0U, 0x3c178d50U, 0x3f8e666600000000U, 0x4001e0ee3c6ae3cdU,
  0x3e3b40e0U, 0xbdb682213f9920a0U, 0x0U, 0x3e8834e300000000U,
  0x0U, 0x3cc00a1500000000U, 0xbc67f9b34049fbe7U, 0x3f8ad0e53e9f8337U,
  0x0U, 0x3fee532800000000U, 0x3ff026bc00000000U, 0x0U,
  0x3e9365bf00000000U, 0x3e6209c43ec91a30U, 0x3e68e00eU, 0x3ea36f2aU,
  0xbd714f3eU, 0x0U, 0x3c252dd900000000U, 0x3ebee7433e907810U,
  0x3e96d803U, 0x3f90ba6cU, 0x0U, 0x3f93b0fabf65c23fU,
  0xbf84cb11U, 0x3e9482d1U, 0x40061cacU, 0x0U,
  0x0U, 0x3e8acf7f3eb6d53cU, 0x0U, 0x3f9338aaU,
  0x404e3d713edae710U, 0x0U, 0x3edd8f15U, 0x3f9d87ebU,
  0x3dd49ba6U, 0x3bcb4b5f00000000U, 0x3bb9bcf5U, 0x3f8e3d7c00000000U,
  0x3e6756fabba21b6aU, 0xbd38ee333e77134bU, 0x3e749bd33f7978d5U, 0xbd93c2e0U,
  0x3f829b31U, 0x0U, 0x3f7f2e3000000000U, 0x3f7b379f00000000U,
  0x3e3e33fb00000000U, 0x0U, 0x3f2374bcU, 0x3e525af3bd004b9fU,
  0x3ff22d0e00000000U, 0x0U, 0x3f7ef1083e7e3789U, 0x0U,
  0x3f8cca3b3e8a4848U, 0x0U, 0x3f91925d00000000U, 0xbd8aaedeU,
  0x3f736c5b3fada1caU, 0x3e961ccc00000000U, 0x3e48d074U, 0x3e5f4796bf66d044U,
  0xbe18b801U, 0x3db6019300000000U, 0x0U, 0x0U,
  0x3ead996cU, 0x3e9127f7U, 0x3ead790900000000U, 0xbd698cff3e98208eU,
  0x4065b4e200000000U, 0x3e941c5fU, 0x0U, 0xbf747f9bbe1dad23U,
  0x0U, 0xbf7e9191U, 0x3fcf0a3dU, 0xbe12e8d8U,
  0x3ec6754100000000U, 0x3fa0c49bU, 0x3ecc538e00000000U, 0x3e9bfe9f3f8ac55fU,
  0x0U, 0x0U, 0x3f3f3b64U, 0x3e2fbb5aU,
  0x3eb843c63f11ac18U, 0x3f8c18933c2684a5U, 0x3ff7be7600000000U, 0x3ad6e1e8U,
  0x0U, 0x3e621d8c3e63ef20U, 0x3f59ba5e3f5b4395U, 0x0U,
  0x0U, 0x0U, 0x3e94d9d700000000U, 0xbda01e403fd5a1cbU,
  0x0U, 0x3e88ed52U, 0x3f9700dd00000000U, 0xbcf7cedaU,
  0x3eb1ec9b00000000U, 0xbf872ba4405f5c29U, 0x3e3f237200000000U, 0x3f8e372fU,
  0x3fc8a3d7U, 0x0U, 0x3e84d21a00000000U, 0x3fb3439500000000U,
  0x3ea056d200000000U, 0x4033972b00000000U, 0x400c418900000000U, 0x0U,
  0x3da041b3U, 0x3f952f1a3e679b1dU, 0xbd7d8ee43f695cacU, 0x3f4a7efa3f845382U,
  0x3f0cccccU, 0x0U, 0x3f7f2e3000000000U, 0x3f8a2d0e00000000U,
  0x3e5e0ee33f599999U, 0x0U, 0x0U, 0x3f85a6993e795defU,
  0x3e121934U, 0x3f51a9fc3e3b25c4U, 0x3e22aa2200000000U, 0x0U,
  0x0U, 0xbf82466bU, 0x3f746ebd00000000U, 0x3e502ee700000000U,
  0x3f051eb800000000U, 0x0U, 0x3ebccb853f8e40afU, 0x3f81bccd3e8b40e2U,
  0x3f8183a5bbf70533U, 0xbd81f59a00000000U, 0x3f8bfd6100000000U, 0x3e9fb6c0U,
  0x0U, 0x3fbb4254U, 0x3f857dd7U, 0x3f91581000000000U,
  0x3e2eee563f7126e9U, 0x3e5939da00000000U, 0x3cb8f33d3fc3020cU, 0xbdf84f67U,
  0x0U, 0x0U, 0x3e6344863c3ad732U, 0xbd95838c00000000U,
  0x3e84019600000000U, 0x0U, 0x3facac0800000000U, 0xbcf613393e76a565U,
  0x0U, 0x3ebc9482b9123220U, 0x0U, 0x3d43d20000000000U,
  0xbd170f49U, 0x0U, 0x3eba6648bd26c62fU, 0x3f86a82fU,
  0x0U, 0x3e9dc0dc00000000U, 0xbe1559f43d4f847dU, 0x3fcd81063fba2d0eU,
  0x0U, 0x3eaceeca00000000U, 0x3f83ba2aU, 0xbf838a7a3e9cf9abU,
  0x3d55861000000000U, 0x0U, 0x3ec9824600000000U, 0x3cba5e3500000000U,
  0x0U, 0x401a0c4a00000000U, 0xbe59388fU, 0xbf80acd2U,
  0x0U, 0x3e9fd5133c202349U, 0x4005a1caU, 0xbca2a89100000000U,
  0x3f94c6d3U, 0x3eddca6aU, 0x0U, 0x3eba33183f986d64U,
  0x0U, 0x3d161ddc00000000U, 0x3e63321c00000000U, 0x3e25ed1a3f898937U,
  0x3f8e75f6bd5c14ccU, 0x3e45a43fU, 0x3e49238f3f456041U, 0x0U,
  0x0U, 0x3e87ae14U, 0x3e2c4cec3e3cae2dU, 0x0U,
  0xbd35d6ba00000000U, 0x3e4ce4513cc30859U, 0xbf7da40000000000U, 0x3e37287c00000000U,
  0x0U, 0x3ffb22d000000000U, 0x3e35b9173d9f7cedU, 0x0U,
  0x0U, 0x3f7400a5U, 0xbf834ad53e825108U, 0x3f01cac000000000U,
  0x0U, 0xbba21b6a00000000U, 0x3fada1ca3f94aa64U, 0xbe041ee13e5fbc2aU,
  0x3f8a75d700000000U, 0x0U, 0x3eda61b13d812bf4U, 0xbd2b2557U,
  0x0U, 0x3dc7379c3ff33333U, 0x3ead7a3a00000000U, 0x0U,
  0x3eb24ae600000000U, 0xbd26c62fU, 0xbe2ea56b00000000U, 0x3e9b235d00000000U,
  0x3f8afff500000000U, 0x0U, 0xbe2400a23ea9314dU, 0x3e8cb8fa00000000U,
  0x3ecf63a1U, 0x3f9e024700000000U, 0x3f9d91683f92677cU, 0x3ec3669500000000U,
  0x0U, 0x0U, 0x3f8d1d983f963fe2U, 0x0U,
  0x3eb9d8a5U, 0x3fb178d5U, 0x3e9196b1403fae14U, 0x0U,
  0x3f89288cU, 0x3dc5ae65U, 0x3eca4f0100000000U, 0x3fa6872b3fa50334U,
  0x3c2803c83e8d76f5U, 0xbd95838cU, 0x3e813bd700000000U, 0x3f5126e9U,
  0x0U, 0x3f74b16000000000U, 0x0U, 0x0U,
  0x3db95810U, 0x3f94fdf33f9763bdU, 0x3e25dcfd3e603607U, 0x3e11f401U,
  0x3f7e8be3U, 0x3f7f7b27U, 0x3f8063c6U, 0x3f576c8bU,
  0x3f88e56000000000U, 0x3e322fa6U, 0x3f7b1e71U, 0x3f973b643f8a046eU,
  0x3f80f1c1U, 0x0U, 0xbc8812e8U, 0x3e4bc48400000000U,
  0x0U, 0x3f8604e23e4e9cafU, 0x3f8f7de800000000U, 0x3f8268ceU,
  0x0U, 0xba66a2e63c700285U, 0xbe4e9f1eU, 0x3ed994ac40192f1bU,
  0xbd5e80de3ffd9168U, 0x3dab8a2900000000U, 0x3e84b9f900000000U, 0x0U,
  0x0U, 0x3fb6130500000000U, 0x0U, 0x3f95c28f00000000U,
  0x3edcac083f839581U, 0x3e90e11300000000U, 0x3e0c57d53e88e313U, 0x0U,
  0x0U, 0x3fc71aa03e8bb33dU, 0xbd9e02d6U, 0x0U,
  0x3e975506U, 0xbbac812f00000000U, 0xbd887a403e9aeb6eU, 0x3e6bc6c000000000U,
  0x3e9ff03c00000000U, 0xbe23c05bbe15b22dU, 0x0U, 0xbd49ba5eU,
  0x3e90ad06U, 0x3e9ceefaU, 0xbf63f87000000000U, 0x0U,
  0x3e9069b6bb82711dU, 0x0U, 0xbe6738e0U, 0x3f8a185eU,
  0x3f8a4afaU, 0x400044b7U, 0x0U, 0x3e8c75973cf49416U,
  0x3f8d7be3U, 0xbe20a51a4065b4e2U, 0x3ff6134300000000U, 0x0U,
  0x3e8372d700000000U, 0x402ae14700000000U, 0x3eb0b2bf3ea0445fU, 0x0U,
  0x3fa80000U, 0x3edd9ddd00000000U, 0x3f8e369100000000U, 0x0U,
  0x3ed2bc49402ef1aaU, 0x0U, 0x3d01062400000000U, 0x3ec86a5000000000U,
  0x3e69d6a7bbe41d9eU, 0xbd98987f3aad4ad5U, 0x3f67ae143f86f9dbU, 0x3e54790d3e522b42U,
  0xbdcc67fa00000000U, 0x0U, 0x0U, 0x3ff343953e89bc6eU,
  0x3e5a262bU, 0x0U, 0x3f9b2d9700000000U, 0xbd57741b3f88b439U,
  0x3f83e76c3f900146U, 0x0U, 0x0U, 0x3e92fe33U,
  0x0U, 0x3dc0c0273fa76c8bU, 0xbf84a81800000000U, 0x3fb1687300000000U,
  0x3f7f5c62U, 0x0U, 0x3e824672U, 0x3e97563900000000U,
  0x3f789f083ea94a07U, 0xbd9b31f100000000U, 0x3e8735a700000000U, 0xbf82d0bd3e855411U,
  0x3f86872b00000000U, 0x3e67f48100000000U, 0x3d048271U, 0x0U,
  0x0U, 0xbba6fda300000000U, 0x3e90f7bdU, 0x3e95029b00000000U,
  0x3f8b713a00000000U, 0x3ea75cd900000000U, 0x0U, 0x3e374c7dU,
  0x3f8a6e973c0d6409U, 0x3f8dd2f100000000U, 0x0U, 0x3f878d503c4ae8d7U,
  0x0U, 0x3f8b7c3c00000000U, 0x3b19c1e83e992ca6U, 0x3e9394a7be15b22dU,
  0x0U, 0x3d8d15e5U, 0x3eab96fdU, 0x0U,
  0x3ecfbe3b3ea2bfc8U, 0x3ea6e31a3eba8e18U, 0xbf7d1aa000000000U, 0xbca9508000000000U,
  0x0U, 0x0U, 0x3cf4941600000000U, 0x3f96eeb64033a835U,
  0x3fbe978d00000000U, 0x3f8bd44500000000U, 0x0U, 0x3f9f27dbU,
  0xbd6349e3U, 0xbf81fe1c3f942bdcU, 0x0U, 0x3f986d6400000000U,
  0x0U, 0x3dc08312U, 0x3fca5e353ecc0325U, 0x3f551eb83e3f1a94U,
  0x3f7b879cbd9808d3U, 0x0U, 0x3e41a9a83d9cc2b8U, 0xbc95d1afU,
  0x0U, 0x3e87272600000000U, 0x3e0e67a13e86df64U, 0x3f7d4fdf00000000U,
  0x3f8360ed3e3de9e2U, 0x3e085206U, 0x0U, 0x3f83662fU,
  0x3e8210fa00000000U, 0x0U, 0xbd48689b00000000U, 0x0U,
  0x3f91a9fcbd17379dU, 0x3eaa36913cca5bb0U, 0x0U, 0xbcab8f3400000000U,
  0xbd79c6f9U, 0x3c2803c800000000U, 0x3e94d9ffU, 0x0U,
  0x3fb48b433e8d513bU, 0xbe02aede3ca8d783U, 0x4000bc6a00000000U, 0x3e5923613ff80718U,
  0x3e55a407U, 0x3e625d2d00000000U, 0xbd724139U, 0x0U,
  0x0U, 0x3eba6b6cU, 0xbf78be9f00000000U, 0x3ade71c03f93f7cfU,
  0x0U, 0xbb724b4cU, 0x3b909ecc00000000U, 0x0U,
  0x3f858273U, 0x3e85eeccbc4fcb12U, 0x3ea19f5300000000U, 0x3e7ccc2dU,
  0x3e876c6fU, 0x3f929f923fa1cac0U, 0x0U, 0x0U,
  0x3f87bcc000000000U, 0x3ffa4dd33eaf6aa1U, 0xbc83f03fU, 0x3e9296e100000000U,
  0x0U, 0x3e90a1d0U, 0x3eacc5353eae8f03U, 0x0U,
  0x3ebd853800000000U, 0xbd61c5b63d3b4b25U, 0x0U, 0x0U,
  0x3e8f7bb83d590767U, 0xbe0873f33d9ceb0cU, 0x0U, 0xbf7cc49cU,
  0x3f94bc6a00000000U, 0x3e8429deU, 0x3ea648f500000000U, 0x3e8b804cU,
  0x3f885ab7U, 0x3c0ab66f3f900e62U, 0x0U, 0x404de35400000000U,
  0x3f8b667040562d0eU, 0xbf7db2ce3f8b31abU, 0x0U, 0x0U,
  0x0U, 0x3bcb4b5f00000000U, 0x3eca494100000000U, 0xbd1112bf3fc23d71U,
  0xbf764e743f823104U, 0x3e17acc83f7ff268U, 0x3e82f21900000000U, 0x3e29f11aU,
  0x0U, 0x3f795810bc632ba3U, 0x3e57c16d3f47ef9dU, 0x3e93c5e900000000U,
  0x0U, 0x0U, 0x3f81b653U, 0x3e59be6c00000000U,
  0x3f89d61800000000U, 0x3e4e929700000000U, 0x0U, 0x3f83cb033f876c8bU,
  0x3e907dcfU, 0x3e13966700000000U, 0x0U, 0x3eac8271bced54ebU,
  0xbf822fe5U, 0xbe49adc4U, 0x0U, 0x3f902c6200000000U,
  0x3e8e1d813fb7be76U, 0x3f7acdb03faced91U, 0x3ef30e7400000000U, 0x3e5b065d00000000U,
  0xbdd94161U, 0xbcce239bU, 0x3edced92U, 0x3f9a8f5cU,
  0x3ca8d78300000000U, 0xbe05da823fa41893U, 0x0U, 0x0U,
  0x3ea578d000000000U, 0xbcd9209cU, 0x0U, 0x3e3c11bb3b8ffd7aU,
  0x3f7b8cf900000000U, 0x3fdb020c00000000U, 0x0U, 0x3ca5a6d500000000U,
  0x3b55efee3fc509cbU, 0x3e83b498U, 0x0U, 0xbf8224b53f909374U,
  0x0U, 0xbc53f7cfU, 0x3e9d768e00000000U, 0x3e8ff8cdU,
  0xbf837a403ea0321fU, 0x0U, 0x0U, 0x3b8aa2433e8701fbU,
  0x0U, 0x3ea970033ebb5101U, 0x3e958a7eU, 0x3fc41893U,
  0xbf84fd2a00000000U, 0x0U, 0xbb0271203ebedbbaU, 0x0U,
  0xbf70702bU, 0x3d2dc3d200000000U, 0xbe266f393e9effb3U, 0x3e95a09600000000U,
  0x3ef3905d00000000U, 0x3fd4dd2fU, 0xbe0834efU, 0x3ecbe5d3U,
  0x3e9b63baU, 0x0U, 0x3fbb22d0U, 0x3ee122573f8b6670U,
  0x3d8e794e3f8af7b1U, 0x0U, 0x3e90e41e00000000U, 0x0U,
  0x3e7f9951U, 0x403f4395U, 0x3f9f37ccU, 0x404051ebU,
  0x0U, 0x0U, 0x0U, 0x2000100000000U,
  0x6000000000003U, 0x900000007U, 0xe000d00000000U, 0x1200110010000fU,
  0x1500140000U, 0x1900180017U, 0x1d0000001bU, 0x200000U,
  0x26002500000000U, 0x2a000000000000U, 0x2c0000U, 0x3200310030002fU,
  0x33U, 0x380000U, 0x3c003bU, 0x42004100400000U,
  0x46000000440000U, 0x4a004900480000U, 0x4e00000000004bU, 0x5100500000U,
  0x56005500000000U, 0x580057U, 0x5d005c0000U, 0x0U,
  0x66006500640000U, 0x6a006900680000U, 0x6bU, 0x72007100000000U,
  0x73U, 0x780077U, 0x7d007c007bU, 0x82000000800000U,
  0x86000000000000U, 0x8a000000880087U, 0x8bU, 0x9200910090008fU,
  0x93U, 0x9a000000000000U, 0x9c009bU, 0xa0009fU,
  0xa400a3U, 0xaa0000000000a7U, 0xae000000ac00abU, 0x0U,
  0xb6000000b400b3U, 0xba00b900000000U, 0xbc0000U, 0xc2000000c000bfU,
  0xc40000U, 0x200010000U, 0x7000600050000U, 0xb000a00090008U,
  0xe000d0000U, 0x1200110010U, 0x17000000150000U, 0x1b000000190000U,
  0x1cU, 0x210020U, 0x27000000000000U, 0x290000U,
  0x2d002cU, 0x3200310030U, 0x3600000034U, 0x38U,
  0x3f003e0000003cU, 0x410040U, 0x450044U, 0x4b000000000000U,
  0x4e004d004cU, 0x53000000000050U, 0x57005600000000U, 0x58U,
  0x5f00000000005cU, 0x63006200000000U, 0x67000000650000U, 0x690068U,
  0x6d0000U, 0x73000000710070U, 0x77007600000000U, 0x7a00000000U,
  0x7f007e0000007cU, 0x80U, 0x8600000084U, 0x8b000000000088U,
  0x8f008e0000008cU, 0x910090U, 0x950000U, 0x2000100000000U,
  0x6000500000000U, 0xa000900080007U, 0xd000c000bU, 0x1200110010000fU,
  0x0U, 0x0U, 0x1e001d001c0000U, 0x22000000200000U,
  0x23U, 0x2900280000U, 0x2e002d00000000U, 0x32000000000000U,
  0x36000000340033U, 0x3a000000380037U, 0x3e0000003c0000U, 0x0U,
  0x46004500440043U, 0x47U, 0x4e00000000004bU, 0x52000000500000U,
  0x56000000540053U, 0x5a000000580000U, 0x5e000000000000U, 0x62006100000000U,
  0x66000000640000U, 0x6a000000000000U, 0x6d006c006bU, 0x7100700000U,
  0x7500000073U, 0x780000U, 0x7e0000007c007bU, 0x800000U,
  0x8500000083U, 0x8a000000000087U, 0x8e008d0000008bU, 0x92000000000000U,
  0x93U, 0x9a009900980097U, 0x9e0000009c009bU, 0xa200a100000000U,
  0x0U, 0xaa00a9000000a7U, 0xad00ac00abU, 0xb2000000000000U,
  0xb6000000000000U, 0xb9000000b7U, 0xbd00000000U, 0xc200c1000000bfU,
  0xc6000000c40000U, 0xc80000U, 0x200010000U, 0x7000000000004U,
  0xb000a00090008U, 0xf000e000d0000U, 0x13000000110000U, 0x0U,
  0x1b000000000018U, 0x1e001d001cU, 0x2200000020U, 0x27000000000000U,
  0x2a00290028U, 0x2e0000002cU, 0x3200310030U, 0x0U,
  0x3a00390038U, 0x3e00000000U, 0x43004200410000U, 0x4600000044U,
  0x4b000000000048U, 0x4cU, 0x5200510050U, 0x57005600000054U,
  0x590058U, 0x5f000000000000U, 0x63000000000060U, 0x67000000000064U,
  0x6a00000068U, 0x6e006d0000U, 0x7200000000U, 0x77007600000000U,
  0x78U, 0x7f007e007d007cU, 0x80U, 0x87008600000000U,
  0x8b008a00000088U, 0x8f000000000000U, 0x93009200000090U, 0x94U,
  0x990000U, 0x9d009cU, 0xa300a200a10000U, 0xa600000000U,
  0xaa000000a8U, 0xaf000000ad0000U, 0xb3000000b10000U, 0xb6000000b4U,
  0xb900b8U, 0x100000000U, 0x6000500040003U, 0x900080007U,
  0xc000bU, 0x100000U, 0x16000000140013U, 0x1900000000U,
  0x1e00000000001bU, 0x2100200000U, 0x26002500000000U, 0x2a002900280027U,
  0x2e00000000002bU, 0x0U, 0x36000000340000U, 0x3a003900000037U,
  0x0U, 0x4200000000003fU, 0x46004500440043U, 0x480000U,
  0x4d004c0000U, 0x5200000000004fU, 0x56005500000000U, 0x5a005900580000U,
  0x5e00000000005bU, 0x5fU, 0x640063U, 0x680067U,
  0x6c0000U, 0x70006fU, 0x7500000073U, 0x7a000000000077U,
  0x7e0000007c0000U, 0x8200810080007fU, 0x86000000000000U, 0x880000U,
  0x8d008c0000U, 0x92009100000000U, 0x940093U, 0x9900980097U,
  0x9d00000000U, 0xa2000000a00000U, 0xa400a3U, 0xaa000000a80000U,
  0x1000000000000U, 0x5000400030000U, 0x9000000070006U, 0xaU,
  0x110010000f000eU, 0x1400000012U, 0x16U, 0x1c001b0000U,
  0x1f0000U, 0x25002400000022U, 0x29000000000000U, 0x2d002c002b002aU,
  0x310000002f0000U, 0x35003400000032U, 0x36U, 0x3d000000000000U,
  0x4000000000U, 0x45000000430000U, 0x4800470000U, 0x4d00000000004aU,
  0x4f004eU, 0x55005400000000U, 0x59005800000000U, 0x5b0000U,
  0x610000005f005eU, 0x65006400000000U, 0x69000000000000U, 0x6d0000006b006aU,
  0x710000006f0000U, 0x7400000000U, 0x79007800770076U, 0x7d000000000000U,
  0x800000007eU, 0x82U, 0x89008800870000U, 0x8aU,
  0x910000008f0000U, 0x9400930000U, 0x100000000U, 0x6000500040003U,
  0x900080007U, 0xd000c0000U, 0x1100100000U, 0x16000000000013U,
  0x1a001900000017U, 0x0U, 0x2200000000001fU, 0x2500240023U,
  0x2900280000U, 0x2e000000000000U, 0x3200000000002fU, 0x3500340000U,
  0x380000U, 0x3d003c003bU, 0x410040003fU, 0x0U,
  0x4a004900480047U, 0x4bU, 0x5100000000U, 0x56000000000053U,
  0x5a000000580057U, 0x5e005d005c0000U, 0x0U, 0x66000000000063U,
  0x6a000000680000U, 0x6d0000006bU, 0x7200000000006fU, 0x76000000740000U,
  0x780000U, 0x7e007d0000007bU, 0x810080007fU, 0x86000000000000U,
  0x8900880000U, 0x1000000000000U, 0x5000400030000U, 0x9000800070006U,
  0xd000c000b000aU, 0x0U, 0x15001400000000U, 0x19000000170000U,
  0x1c001b001aU, 0x0U, 0x25000000230000U, 0x29002800000000U,
  0x2c0000002aU, 0x30002f0000U, 0x35003400000000U, 0x39000000000036U,
  0x3b003aU, 0x41004000000000U, 0x45000000430000U, 0x49000000000000U,
  0x4d004c004b004aU, 0x4eU, 0x55005400000000U, 0x59000000000056U,
  0x5c00000000U, 0x610060005f0000U, 0x630062U, 0x69000000000000U,
  0x6c0000006aU, 0x700000006eU, 0x75007400000000U, 0x79000000000076U,
  0x7b0000U, 0x8100800000007eU, 0x85008400000000U, 0x86U,
  0x8d0000008b0000U, 0x9100000000008eU, 0x95000000930092U, 0x96U,
  0x100000000U, 0x6000500040003U, 0x900080007U, 0xd0000000bU,
  0x12000000100000U, 0x13U, 0x180017U, 0x1e001d0000001bU,
  0x22000000000000U, 0x2500240023U, 0x280000U, 0x2d002c0000U,
  0x30002fU, 0x36003500340000U, 0x3a003900380000U, 0x3d003c0000U,
  0x40003fU, 0x4500000000U, 0x47U, 0x4c0000U,
  0x5200510050004fU, 0x56000000000000U, 0x57U, 0x5c005bU,
  0x6200000060005fU, 0x66006500640000U, 0x680000U, 0x6e0000006c0000U,
  0x72000000000000U, 0x76007500740000U, 0x77U, 0x7e0000007c0000U,
  0x82000000800000U, 0x8500840000U, 0x8a008900000000U, 0x8e0000008c008bU,
  0x900000U, 0x96009500940000U, 0x9900000000U, 0x1000000000000U,
  0x5000400030000U, 0x9000800000006U, 0xd000c000b000aU, 0x110010000f000eU,
  0x0U, 0x0U, 0x1d0000001b0000U, 0x0U,
  0x25000000230022U, 0x270026U, 0x2b0000U, 0x310030002f0000U,
  0x3400330032U, 0x39003800000000U, 0x3b003aU, 0x40003f0000U,
  0x4400430000U, 0x49000000470000U, 0x4d004c00000000U, 0x4eU,
  0x5400530000U, 0x570000U, 0x5d005c005b005aU, 0x60005f0000U,
  0x6400000000U, 0x69006800000000U, 0x6c006b006aU, 0x7000000000U,
  0x72U, 0x79007800770076U, 0x7d0000007b0000U, 0x0U,
  0x85008400830082U, 0x870000U, 0x8d008c008b0000U, 0x910000008f0000U,
  0x0U, 0x9800970000U, 0x9d0000009b0000U, 0xa100000000009eU,
  0xa5000000a30000U, 0x2000100000000U, 0x6000500000000U, 0xa000900080007U,
  0xe0000000c000bU, 0x0U, 0x1500000013U, 0x1a000000000017U,
  0x1d001c0000U, 0x2200000000001fU, 0x26000000000023U, 0x27U,
  0x2e0000002c002bU, 0x3200310000002fU, 0x36003500340000U, 0x3900000000U,
  0x3e000000000000U, 0x400000U, 0x4500440043U, 0x480047U,
  0x4d004c0000U, 0x52000000500000U, 0x540000U, 0x580057U,
  0x5d005c005bU, 0x62000000000000U, 0x66000000640000U, 0x6900680067U,
  0x6c006bU, 0x72007100700000U, 0x73U, 0x0U,
  0x7d007c007bU, 0x800000U, 0x840083U, 0x8900880087U,
  0x8e0000008c008bU, 0x0U, 0x9500000093U, 0x9900000097U,
  0x100000000009bU, 0x5000400030000U, 0x9000800070006U, 0x0U,
  0x1100100000000eU, 0x12U, 0x19001800170000U, 0x1c001b0000U,
  0x1eU, 0x230000U, 0x2800000026U, 0x2d00000000002aU,
  0x310030002f002eU, 0x3400000032U, 0x370036U, 0x3d0000003b0000U,
  0x41004000000000U, 0x45004400000042U, 0x470046U, 0x4d000000000000U,
  0x500000004eU, 0x52U, 0x5800570056U, 0x5c005b0000U,
  0x61006000000000U, 0x65000000000000U, 0x670066U, 0x6d006c00000000U,
  0x70006f006eU, 0x75007400000000U, 0x7800770000U, 0x7aU,
  0x800000007eU, 0x85008400000000U, 0x870000U, 0x8d008c008b0000U,
  0x91009000000000U, 0x930000U, 0x9800970000U, 0x100000000U,
  0x6000500040003U, 0xa000000080007U, 0xbU, 0x12000000100000U,
  0x13U, 0x1900180017U, 0x1d0000001bU, 0x22002100000000U,
  0x23U, 0x2a000000280000U, 0x2d0000002bU, 0x32003100000000U,
  0x3500340033U, 0x3a000000000037U, 0x3c003bU, 0x4100400000U,
  0x43U, 0x480047U, 0x4d0000004bU, 0x5200000000004fU,
  0x56005500000053U, 0x5a005900000000U, 0x5d0000005bU, 0x62000000000000U,
  0x66000000000063U, 0x6a000000680000U, 0x6e00000000006bU, 0x700000U,
  0x76007500740073U, 0x780077U, 0x7c007bU, 0x8100000000U,
  0x1000000000000U, 0x5000400030000U, 0x9000000070006U, 0xd0000000b0000U,
  0xf0000U, 0x15000000130012U, 0x19001800170000U, 0x1d000000000000U,
  0x2000000000U, 0x2400230000U, 0x270026U, 0x2d002c002b0000U,
  0x310030002f0000U, 0x3400000032U, 0x36U, 0x3c00000000U,
  0x41004000000000U, 0x45004400000042U, 0x46U, 0x4d004c004b0000U,
  0x51000000000000U, 0x55005400000000U, 0x5800000056U, 0x5c005b005aU,
  0x610000005f0000U, 0x630000U, 0x69000000000066U, 0x6d00000000006aU,
  0x710000006f0000U, 0x730000U, 0x79007800770000U, 0x7c007b0000U,
  0x7eU, 0x85008400000082U, 0x89000000000086U, 0x8c00000000U,
  0x9100000000008eU, 0x92U, 0x4000300000001U, 0x8000700060005U,
  0xb000a0009U, 0xdU, 0x14001300120000U, 0x0U,
  0x1c001b001a0019U, 0x1dU, 0x220000U, 0x2700260000U,
  0x2c002b00000029U, 0x30000000000000U, 0x34003300000000U, 0x3700000035U,
  0x3b003a0039U, 0x40003f0000003dU, 0x0U, 0x48004700000000U,
  0x4b00000000U, 0x4f0000004dU, 0x54000000520000U, 0x5700000055U,
  0x5b005a0000U, 0x60005f00000000U, 0x6300620061U, 0x68000000660000U,
  0x6c000000000000U, 0x6f006e006dU, 0x7300000071U, 0x0U,
  0x7b007a0079U, 0x7f0000007dU, 0x84000000820000U, 0x8700860000U,
  0x8b00000000U, 0x3000000010000U, 0x7000600050004U, 0xb000000000008U,
  0xd000cU, 0x13001200000000U, 0x17001600000014U, 0x190018U,
  0x1d0000U, 0x20U, 0x27000000000024U, 0x2a00290028U,
  0x2f002e00000000U, 0x33003200000000U, 0x37000000000000U, 0x3a00390038U,
  0x3f003e003d003cU, 0x43004200000000U, 0x0U, 0x490000U,
  0x4e004d004cU, 0x510000U, 0x57000000000054U, 0x5a00590000U,
  0x5f0000005d005cU, 0x6200610000U, 0x0U, 0x6b006a00690068U,
  0x6e00000000U, 0x73000000710000U, 0x74U, 0x7a00790078U,
  0x7f000000000000U, 0x8200810080U, 0x850000U, 0x890088U,
  0x8f0000008d008cU, 0x9200910000U, 0x97009600000000U, 0x9a00990098U,
  0x0U, 0x100000000U, 0x6000500040003U, 0x900080007U,
  0xc000bU, 0x12001100100000U, 0x1500000013U, 0x1a000000000000U,
  0x1d00000000U, 0x210000001fU, 0x26002500240000U, 0x2900000000U,
  0x2e002d002c0000U, 0x300000U, 0x36003500000000U, 0x3900380037U,
  0x3e003d0000003bU, 0x42000000400000U, 0x440000U, 0x4900480047U,
  0x0U, 0x50004fU, 0x5500540000U, 0x5900000057U,
  0x5e005d00000000U, 0x60005fU, 0x6500640000U, 0x680000U,
  0x6e0000006c006bU, 0x6fU, 0x7500740000U, 0x7a007900780000U,
  0x7c0000U, 0x8200000000007fU, 0x86000000000083U, 0x8a008900000000U,
  0x8d0000008bU, 0x9200000090008fU, 0x96000000940000U, 0x9a000000000000U,
  0x9e009d009c0000U, 0x9fU, 0xa60000000000a3U, 0xaa000000a80000U,
  0xac0000U, 0x1000000000000U, 0x400030002U, 0x4000300020001U,
  0x3000200010000U, 0x2000100000004U, 0x1000000040003U, 0x400030002U,
  0x4000300020001U, 0x3000200010000U, 0x2000100000004U, 0x1000000040003U,
  0x400030002U, 0x4000300020001U, 0x3000200010000U, 0x2000100000004U,
  0x1000000040003U, 0x400030002U, 0x4000300020001U, 0x3000200010000U,
  0x2000100000004U, 0x1000000040003U, 0x400030002U, 0x4000300020001U,
  0x3000200010000U, 0x2000100000004U, 0x1000000040003U, 0x400030002U,
  0x4000300020001U, 0x3000200010000U, 0x2000100000004U, 0x1000000040003U,
  0x400030002U, 0x4000300020001U, 0x3000200010000U, 0x2000100000004U,
  0x1000000040003U, 0x400030002U, 0x4000300020001U, 0x3000200010000U,
  0x2000100000004U, 0x1000000040003U, 0x400030002U, 0x4000300020001U,
  0x3000200010000U, 0x2000100000004U, 0x1000000040003U, 0x400030002U,
  0x4000300020001U, 0x3000200010000U, 0x2000100000004U, 0x1000000040003U,
  0x400030002U, 0x4000300020001U, 0x3000200010000U, 0x2000100000004U,
  0x1000000040003U, 0x400030002U, 0x4000300020001U, 0x3000200010000U,
  0x2000100000004U, 0x1000000040003U, 0x400030002U, 0x4000300020001U,
  0x3000200010000U, 0x2000100000004U, 0x1000000040003U, 0x400030002U,
  0x4000300020001U, 0x3000200010000U, 0x2000100000004U, 0x1000000040003U,
  0x400030002U, 0x4000300020001U, 0x3000200010000U, 0x2000100000004U,
  0x1000000040003U, 0x400030002U, 0x4000300020001U, 0x3000200010000U,
  0x2000100000004U, 0x1000000040003U, 0x400030002U, 0x4000300020001U,
  0x3000200010000U, 0x2000100000004U, 0x1000000040003U, 0x400030002U,
  0x4000300020001U, 0x3000200010000U, 0x2000100000004U, 0x1000000040003U,
  0x400030002U, 0x4000300020001U, 0x3000200010000U, 0x2000100000004U,
  0x1000000040003U, 0x400030002U, 0x4000300020001U, 0x3000200010000U,
  0x2000100000004U, 0x1000000040003U, 0x400030002U, 0x4000300020001U,
  0x3000200010000U, 0x2000100000004U, 0x1000000040003U, 0x400030002U,
  0x4000300020001U, 0x3000200010000U, 0x2000100000004U, 0x1000000040003U,
  0x400030002U, 0x4000300020001U, 0x3000200010000U, 0x2000100000004U,
  0x1000000040003U, 0x400030002U, 0x4000300020001U, 0x3000200010000U,
  0x2000100000004U, 0x1000000040003U, 0x400030002U, 0x4000300020001U,
  0x3000200010000U, 0x2000100000004U, 0x1000000040003U, 0x400030002U,
  0x4000300020001U, 0x3000200010000U, 0x2000100000004U, 0x1000000040003U,
  0x400030002U, 0x4000300020001U, 0x3000200010000U, 0x2000100000004U,
  0x1000000040003U, 0x400030002U, 0x4000300020001U, 0x3000200010000U,
  0x2000100000004U, 0x1000000040003U, 0x400030002U, 0x4000300020001U,
  0x3000200010000U, 0x2000100000004U, 0x1000000040003U, 0x400030002U,
  0x4000300020001U, 0x3000200010000U, 0x2000100000004U, 0x1000000040003U,
  0x400030002U, 0x4000300020001U, 0x3000200010000U, 0x2000100000004U,
  0x1000000040003U, 0x400030002U, 0x4000300020001U, 0x3000200010000U,
  0x2000100000004U, 0x1000000040003U, 0x400030002U, 0x4000300020001U,
  0x3000200010000U, 0x2000100000004U, 0x1000000040003U, 0x400030002U,
  0x4000300020001U, 0x3000200010000U, 0x2000100000004U, 0x1000000040003U,
  0x400030002U, 0x4000300020001U, 0x3000200010000U, 0x2000100000004U,
  0x1000000040003U, 0x400030002U, 0x4000300020001U, 0x3000200010000U,
  0x2000100000004U, 0x1000000040003U, 0x400030002U, 0x4000300020001U,
  0x3000200010000U, 0x2000100000004U, 0x1000000040003U, 0x400030002U,
  0x4000300020001U, 0x3000200010000U, 0x2000100000004U, 0x1000000040003U,
  0x400030002U, 0x4000300020001U, 0x3000200010000U, 0x2000100000004U,
  0x1000000040003U, 0x400030002U, 0x4000300020001U, 0x3000200010000U,
  0x2000100000004U, 0x1000000040003U, 0x400030002U, 0x4000300020001U,
  0x3000200010000U, 0x2000100000004U, 0x1000000040003U, 0x400030002U,
  0x4000300020001U, 0x3000200010000U, 0x2000100000004U, 0x1000000040003U,
  0x400030002U, 0x4000300020001U, 0x3000200010000U, 0x2000100000004U,
  0x1000000040003U, 0x400030002U, 0x4000300020001U, 0x3000200010000U,
  0x2000100000004U, 0x1000000040003U, 0x400030002U, 0x4000300020001U,
  0x3000200010000U, 0x2000100000004U, 0x1000000040003U, 0x400030002U,
  0x4000300020001U, 0x3000200010000U, 0x2000100000004U, 0x1000000040003U,
  0x400030002U, 0x4000300020001U, 0x3000200010000U, 0x2000100000004U,
  0x1000000040003U, 0x400030002U, 0x4000300020001U, 0x3000200010000U,
  0x2000100000004U, 0x1000000040003U, 0x400030002U, 0x4000300020001U,
  0x3000200010000U, 0x2000100000004U, 0x1000000040003U, 0x400030002U,
  0x4000300020001U, 0x3000200010000U, 0x2000100000004U, 0x1000000040003U,
  0x400030002U, 0x4000300020001U, 0x3000200010000U, 0x2000100000004U,
  0x1000000040003U, 0x400030002U, 0x4000300020001U, 0x3000200010000U,
  0x2000100000004U, 0x1000000040003U, 0x400030002U, 0x4000300020001U,
  0x3000200010000U, 0x2000100000004U, 0x1000000040003U, 0x400030002U,
  0x4000300020001U, 0x3000200010000U, 0x2000100000004U, 0x1000000040003U,
  0x400030002U, 0x4000300020001U, 0x3000200010000U, 0x2000100000004U,
  0x1000000040003U, 0x400030002U, 0x4000300020001U, 0x3000200010000U,
  0x2000100000004U, 0x1000000040003U, 0x400030002U, 0x4000300020001U,
  0x3000200010000U, 0x2000100000004U, 0x1000000040003U, 0x400030002U,
  0x4000300020001U, 0x3000200010000U, 0x2000100000004U, 0x1000000040003U,
  0x400030002U, 0x4000300020001U, 0x3000200010000U, 0x2000100000004U,
  0x1000000040003U, 0x400030002U, 0x4000300020001U, 0x3000200010000U,
  0x2000100000004U, 0x1000000040003U, 0x400030002U, 0x4000300020001U,
  0x3000200010000U, 0x2000100000004U, 0x1000000040003U, 0x400030002U,
  0x4000300020001U, 0x3000200010000U, 0x2000100000004U, 0x1000000040003U,
  0x400030002U, 0x4000300020001U, 0x3000200010000U, 0x2000100000004U,
  0x1000000040003U, 0x400030002U, 0x4000300020001U, 0x3000200010000U,
  0x2000100000004U, 0x1000000040003U, 0x400030002U, 0x4000300020001U,
  0x3000200010000U, 0x2000100000004U, 0x1000000040003U, 0x400030002U,
  0x4000300020001U, 0x3000200010000U, 0x2000100000004U, 0x1000000040003U,
  0x400030002U, 0x4000300020001U, 0x3000200010000U, 0x2000100000004U,
  0x1000000040003U, 0x400030002U, 0x4000300020001U, 0x3000200010000U,
  0x2000100000004U, 0x1000000040003U, 0x400030002U, 0x4000300020001U,
  0x3000200010000U, 0x2000100000004U, 0x1000000040003U, 0x400030002U,
  0x4000300020001U, 0x3000200010000U, 0x2000100000004U, 0x1000000040003U,
  0x400030002U, 0x4000300020001U, 0x3000200010000U, 0x2000100000004U,
  0x1000000040003U, 0x400030002U, 0x4000300020001U, 0x3000200010000U,
  0x2000100000004U, 0x1000000040003U, 0x400030002U, 0x4000300020001U,
  0x3000200010000U, 0x2000100000004U, 0x1000000040003U, 0x400030002U,
  0x4000300020001U, 0x3000200010000U, 0x2000100000004U, 0x1000000040003U,
  0x400030002U, 0x4000300020001U, 0x3000200010000U, 0x2000100000004U,
  0x1000000040003U, 0x400030002U, 0x4000300020001U, 0x3000200010000U,
  0x2000100000004U, 0x1000000040003U, 0x400030002U, 0x4000300020001U,
  0x3000200010000U, 0x2000100000004U, 0x1000000040003U, 0x400030002U,
  0x4000300020001U, 0x3000200010000U, 0x2000100000004U, 0x1000000040003U,
  0x400030002U, 0x4000300020001U, 0x3000200010000U, 0x2000100000004U,
  0x1000000040003U, 0x400030002U, 0x4000300020001U, 0x3000200010000U,
  0x2000100000004U, 0x1000000040003U, 0x400030002U, 0x4000300020001U,
  0x3000200010000U, 0x2000100000004U, 0x1000000040003U, 0x400030002U,
  0x4000300020001U, 0x3000200010000U, 0x2000100000004U, 0x1000000040003U,
  0x400030002U, 0x4000300020001U, 0x3000200010000U, 0x2000100000004U,
  0x1000000040003U, 0x400030002U, 0x4000300020001U, 0x3000200010000U,
  0x2000100000004U, 0x1000000040003U, 0x400030002U, 0x4000300020001U,
  0x3000200010000U, 0x2000100000004U, 0x1000000040003U, 0x400030002U,
  0x4000300020001U, 0x3000200010000U, 0x2000100000004U, 0x1000000040003U,
  0x400030002U, 0x4000300020001U, 0x3000200010000U, 0x2000100000004U,
  0x1000000040003U, 0x400030002U, 0x4000300020001U, 0x3000200010000U,
  0x2000100000004U, 0x1000000040003U, 0x400030002U, 0x4000300020001U,
  0x3000200010000U, 0x2000100000004U, 0x1000000040003U, 0x400030002U,
  0x4000300020001U, 0x3000200010000U, 0x2000100000004U, 0x1000000040003U,
  0x400030002U, 0x4000300020001U, 0x3000200010000U, 0x2000100000004U,
  0x1000000040003U, 0x400030002U, 0x4000300020001U, 0x3000200010000U,
  0x2000100000004U, 0x1000000040003U, 0x400030002U, 0x4000300020001U,
  0x3000200010000U, 0x2000100000004U, 0x1000000040003U, 0x400030002U,
  0x4000300020001U, 0x3000200010000U, 0x2000100000004U, 0x1000000040003U,
  0x400030002U, 0x4000300020001U, 0x3000200010000U, 0x2000100000004U,
  0x1000000040003U, 0x400030002U, 0x4000300020001U, 0x3000200010000U,
  0x2000100000004U, 0x1000000040003U, 0x400030002U, 0x4000300020001U,
  0x3000200010000U, 0x2000100000004U, 0x1000000040003U, 0x400030002U,
  0x4000300020001U, 0x3000200010000U, 0x2000100000004U, 0x1000000040003U,
  0x400030002U, 0x4000300020001U, 0x3000200010000U, 0x2000100000004U,
  0x1000000040003U, 0x400030002U, 0x4000300020001U, 0x3000200010000U,
  0x2000100000004U, 0x1000000040003U, 0x400030002U, 0x4000300020001U,
  0x3000200010000U, 0x2000100000004U, 0x1000000040003U, 0x400030002U,
  0x4000300020001U, 0x3000200010000U, 0x2000100000004U, 0x1000000040003U,
  0x400030002U, 0x4000300020001U, 0x3000200010000U, 0x2000100000004U,
  0x1000000040003U, 0x400030002U, 0x4000300020001U, 0x3000200010000U,
  0x2000100000004U, 0x1000000040003U, 0x400030002U, 0x4000300020001U,
  0x3000200010000U, 0x2000100000004U, 0x1000000040003U, 0x400030002U,
  0x4000300020001U, 0x3000200010000U, 0x2000100000004U, 0x1000000040003U,
  0x400030002U, 0x4000300020001U, 0x3000200010000U, 0x2000100000004U,
  0x1000000040003U, 0x400030002U, 0x4000300020001U, 0x3000200010000U,
  0x2000100000004U, 0x1000000040003U, 0x400030002U, 0x4000300020001U,
  0x3000200010000U, 0x2000100000004U, 0x1000000040003U, 0x400030002U,
  0x4000300020001U, 0x3000200010000U, 0x2000100000004U, 0x1000000040003U,
  0x400030002U, 0x4000300020001U, 0x3000200010000U, 0x2000100000004U,
  0x1000000040003U, 0x400030002U, 0x4000300020001U, 0x3000200010000U,
  0x2000100000004U, 0x1000000040003U, 0x400030002U, 0x4000300020001U,
  0x3000200010000U, 0x2000100000004U, 0x1000000040003U, 0x400030002U,
  0x4000300020001U, 0x3000200010000U, 0x2000100000004U, 0x1000000040003U,
  0x400030002U, 0x4000300020001U, 0x3000200010000U, 0x2000100000004U,
  0x1000000040003U, 0x400030002U, 0x4000300020001U, 0x3000200010000U,
  0x2000100000004U, 0x1000000040003U, 0x400030002U, 0x4000300020001U,
  0x3000200010000U, 0x2000100000004U, 0x1000000040003U, 0x400030002U,
  0x4000300020001U, 0x3000200010000U, 0x2000100000004U, 0x1000000040003U,
  0x400030002U, 0x4000300020001U, 0x3000200010000U, 0x2000100000004U,
  0x1000000040003U, 0x400030002U, 0x4000300020001U, 0x3000200010000U,
  0x2000100000004U, 0x1000000040003U, 0x400030002U, 0x4000300020001U,
  0x3000200010000U, 0x2000100000004U, 0x1000000040003U, 0x400030002U,
  0x4000300020001U, 0x3000200010000U, 0x2000100000004U, 0x1000000040003U,
  0x400030002U, 0x4000300020001U, 0x3000200010000U, 0x2000100000004U,
  0x1000000040003U, 0x400030002U, 0x4000300020001U, 0x3000200010000U,
  0x2000100000004U, 0x1000000040003U, 0x400030002U, 0x4000300020001U,
  0x3000200010000U, 0x2000100000004U, 0x1000000040003U, 0x400030002U,
  0x4000300020001U, 0x3000200010000U, 0x2000100000004U, 0x1000000040003U,
  0x400030002U, 0x4000300020001U, 0x3000200010000U, 0x2000100000004U,
  0x1000000040003U, 0x400030002U, 0x4000300020001U, 0x3000200010000U,
  0x2000100000004U, 0x1000000040003U, 0x400030002U, 0x4000300020001U,
  0x3000200010000U, 0x2000100000004U, 0x1000000040003U, 0x400030002U,
  0x4000300020001U, 0x3000200010000U, 0x2000100000004U, 0x1000000040003U,
  0x400030002U, 0x4000300020001U, 0x3000200010000U, 0x2000100000004U,
  0x1000000040003U, 0x400030002U, 0x4000300020001U, 0x3000200010000U,
  0x2000100000004U, 0x1000000040003U, 0x400030002U, 0x4000300020001U,
  0x3000200010000U, 0x2000100000004U, 0x1000000040003U, 0x400030002U,
  0x4000300020001U, 0x3000200010000U, 0x2000100000004U, 0x1000000040003U,
  0x400030002U, 0x4000300020001U, 0x3000200010000U, 0x2000100000004U,
  0x1000000040003U, 0x400030002U, 0x4000300020001U, 0x3000200010000U,
  0x2000100000004U, 0x1000000040003U, 0x400030002U, 0x4000300020001U,
  0x3000200010000U, 0x2000100000004U, 0x1000000040003U, 0x400030002U,
  0x4000300020001U, 0x3000200010000U, 0x2000100000004U, 0x1000000040003U,
  0x400030002U, 0x4000300020001U, 0x3000200010000U, 0x2000100000004U,
  0x1000000040003U, 0x400030002U, 0x4000300020001U, 0x3000200010000U,
  0x2000100000004U, 0x1000000040003U, 0x400030002U, 0x4000300020001U,
  0x3000200010000U, 0x2000100000004U, 0x1000000040003U, 0x400030002U,
  0x4000300020001U, 0x3000200010000U, 0x2000100000004U, 0x1000000040003U,
  0x400030002U, 0x4000300020001U, 0x3000200010000U, 0x2000100000004U,
  0x1000000040003U, 0x400030002U, 0x4000300020001U, 0x3000200010000U,
  0x2000100000004U, 0x1000000040003U, 0x400030002U, 0x4000300020001U,
  0x3000200010000U, 0x2000100000004U, 0x1000000040003U, 0x400030002U,
  0x4000300020001U, 0x3000200010000U, 0x2000100000004U, 0x1000000040003U,
  0x400030002U, 0x4000300020001U, 0x3000200010000U, 0x2000100000004U,
  0x1000000040003U, 0x400030002U, 0x4000300020001U, 0x3000200010000U,
  0x2000100000004U, 0x1000000040003U, 0x400030002U, 0x4000300020001U,
  0x3000200010000U, 0x2000100000004U, 0x1000000040003U, 0x400030002U,
  0x4000300020001U, 0x3000200010000U, 0x2000100000004U, 0x1000000040003U,
  0x400030002U, 0x4000300020001U, 0x3000200010000U, 0x2000100000004U,
  0x1000000040003U, 0x400030002U, 0x4000300020001U, 0x3000200010000U,
  0x2000100000004U, 0x1000000040003U, 0x400030002U, 0x4000300020001U,
  0x3000200010000U, 0x2000100000004U, 0x1000000040003U, 0x400030002U,
  0x4000300020001U, 0x3000200010000U, 0x2000100000004U, 0x1000000040003U,
  0x400030002U, 0x4000300020001U, 0x3000200010000U, 0x2000100000004U,
  0x1000000040003U, 0x400030002U, 0x4000300020001U, 0x3000200010000U,
  0x2000100000004U, 0x1000000040003U, 0x400030002U, 0x4000300020001U,
  0x3000200010000U, 0x2000100000004U, 0x1000000040003U, 0x400030002U,
  0x4000300020001U, 0x3000200010000U, 0x2000100000004U, 0x1000000040003U,
  0x400030002U, 0x4000300020001U, 0x3000200010000U, 0x2000100000004U,
  0x1000000040003U, 0x400030002U, 0x4000300020001U, 0x3000200010000U,
  0x2000100000004U, 0x1000000040003U, 0x400030002U, 0x4000300020001U,
  0x3000200010000U, 0x2000100000004U, 0x1000000040003U, 0x400030002U,
  0x4000300020001U, 0x3000200010000U, 0x2000100000004U, 0x1000000040003U,
  0x400030002U, 0x4000300020001U, 0x3000200010000U, 0x2000100000004U,
  0x1000000040003U, 0x400030002U, 0x4000300020001U, 0x3000200010000U,
  0x2000100000004U, 0x1000000040003U, 0x400030002U, 0x4000300020001U,
  0x3000200010000U, 0x2000100000004U, 0x1000000040003U, 0x400030002U,
  0x4000300020001U, 0x3000200010000U, 0x2000100000004U, 0x1000000040003U,
  0x400030002U, 0x4000300020001U, 0x3000200010000U, 0x2000100000004U,
  0x1000000040003U, 0x400030002U, 0x4000300020001U, 0x3000200010000U,
  0x2000100000004U, 0x1000000040003U, 0x400030002U, 0x4000300020001U,
  0x3000200010000U, 0x2000100000004U, 0x1000000040003U, 0x400030002U,
  0x4000300020001U, 0x3000200010000U, 0x2000100000004U, 0x1000000040003U,
  0x400030002U, 0x4000300020001U, 0x3000200010000U, 0x2000100000004U,
  0x1000000040003U, 0x400030002U, 0x4000300020001U, 0x3000200010000U,
  0x2000100000004U, 0x1000000040003U, 0x400030002U, 0x4000300020001U,
  0x3000200010000U, 0x2000100000004U, 0x1000000040003U, 0x400030002U,
  0x4000300020001U, 0x3000200010000U, 0x2000100000004U, 0x1000000040003U,
  0x400030002U, 0x4000300020001U, 0x3000200010000U, 0x2000100000004U,
  0x1000000040003U, 0x400030002U, 0x4000300020001U, 0x3000200010000U,
  0x2000100000004U, 0x1000000040003U, 0x400030002U, 0x4000300020001U,
  0x3000200010000U, 0x2000100000004U, 0x1000000040003U, 0x400030002U,
  0x4000300020001U, 0x3000200010000U, 0x2000100000004U, 0x1000000040003U,
  0x400030002U, 0x4000300020001U, 0x3000200010000U, 0x2000100000004U,
  0x1000000040003U, 0x400030002U, 0x4000300020001U, 0x3000200010000U,
  0x2000100000004U, 0x1000000040003U, 0x400030002U, 0x4000300020001U,
  0x3000200010000U, 0x2000100000004U, 0x1000000040003U, 0x400030002U,
  0x4000300020001U, 0x3000200010000U, 0x2000100000004U, 0x1000000040003U,
  0x400030002U, 0x4000300020001U, 0x3000200010000U, 0x2000100000004U,
  0x1000000040003U, 0x400030002U, 0x4000300020001U, 0x3000200010000U,
  0x2000100000004U, 0x1000000040003U, 0x400030002U, 0x4000300020001U,
  0x3000200010000U, 0x2000100000004U, 0x1000000040003U, 0x400030002U,
  0x4000300020001U, 0x3000200010000U, 0x2000100000004U, 0x1000000040003U,
  0x400030002U, 0x4000300020001U, 0x3000200010000U, 0x2000100000004U,
  0x1000000040003U, 0x400030002U, 0x4000300020001U, 0x3000200010000U,
  0x2000100000004U, 0x1000000040003U, 0x400030002U, 0x4000300020001U,
  0x3000200010000U, 0x2000100000004U, 0x1000000040003U, 0x400030002U,
  0x4000300020001U, 0x3000200010000U, 0x2000100000004U, 0x1000000040003U,
  0x400030002U, 0x4000300020001U, 0x3000200010000U, 0x2000100000004U,
  0x1000000040003U, 0x400030002U, 0x4000300020001U, 0x3000200010000U,
  0x2000100000004U, 0x1000000040003U, 0x400030002U, 0x4000300020001U,
  0x3000200010000U, 0x2000100000004U, 0x1000000040003U, 0x400030002U,
  0x4000300020001U, 0x3000200010000U, 0x2000100000004U, 0x1000000040003U,
  0x400030002U, 0x4000300020001U, 0x3000200010000U, 0x2000100000004U,
  0x1000000040003U, 0x400030002U, 0x4000300020001U, 0x3000200010000U,
  0x2000100000004U, 0x1000000040003U, 0x400030002U, 0x4000300020001U,
  0x3000200010000U, 0x2000100000004U, 0x1000000040003U, 0x400030002U,
  0x4000300020001U, 0x3000200010000U, 0x2000100000004U, 0x1000000040003U,
  0x400030002U, 0x4000300020001U, 0x3000200010000U, 0x2000100000004U,
  0x1000000040003U, 0x400030002U, 0x4000300020001U, 0x3000200010000U,
  0x2000100000004U, 0x1000000040003U, 0x400030002U, 0x4000300020001U,
  0x3000200010000U, 0x2000100000004U, 0x1000000040003U, 0x400030002U,
  0x4000300020001U, 0x3000200010000U, 0x2000100000004U, 0x1000000040003U,
  0x400030002U, 0x4000300020001U, 0x3000200010000U, 0x2000100000004U,
  0x1000000040003U, 0x400030002U, 0x4000300020001U, 0x3000200010000U,
  0x2000100000004U, 0x1000000040003U, 0x400030002U, 0x4000300020001U,
  0x3000200010000U, 0x2000100000004U, 0x1000000040003U, 0x400030002U,
  0x4000300020001U, 0x3000200010000U, 0x2000100000004U, 0x1000000040003U,
  0x400030002U, 0x4000300020001U, 0x3000200010000U, 0x2000100000004U,
  0x1000000040003U, 0x400030002U, 0x4000300020001U, 0x3000200010000U,
  0x2000100000004U, 0x1000000040003U, 0x400030002U, 0x4000300020001U,
  0x3000200010000U, 0x2000100000004U, 0x1000000040003U, 0x400030002U,
  0x4000300020001U, 0x3000200010000U, 0x2000100000004U, 0x1000000040003U,
  0x400030002U, 0x4000300020001U, 0x3000200010000U, 0x2000100000004U,
  0x1000000040003U, 0x400030002U, 0x4000300020001U, 0x3000200010000U,
  0x2000100000004U, 0x1000000040003U, 0x400030002U, 0x4000300020001U,
  0x3000200010000U, 0x2000100000004U, 0x1000000040003U, 0x400030002U,
  0x4000300020001U, 0x3000200010000U, 0x2000100000004U, 0x1000000040003U,
  0x400030002U, 0x4000300020001U, 0x3000200010000U, 0x2000100000004U,
  0x1000000040003U, 0x400030002U, 0x4000300020001U, 0x3000200010000U,
  0x2000100000004U, 0x1000000040003U, 0x400030002U, 0x4000300020001U,
  0x3000200010000U, 0x2000100000004U, 0x1000000040003U, 0x400030002U,
  0x4000300020001U, 0x3000200010000U, 0x2000100000004U, 0x1000000040003U,
  0x400030002U, 0x4000300020001U, 0x3000200010000U, 0x2000100000004U,
  0x1000000040003U, 0x400030002U, 0x4000300020001U, 0x3000200010000U,
  0x2000100000004U, 0x1000000040003U, 0x400030002U, 0x4000300020001U,
  0x3000200010000U, 0x2000100000004U, 0x1000000040003U, 0x400030002U,
  0x4000300020001U, 0x3000200010000U, 0x2000100000004U, 0x1000000040003U,
  0x400030002U, 0x4000300020001U, 0x3000200010000U, 0x2000100000004U,
  0x1000000040003U, 0x400030002U, 0x4000300020001U, 0x3000200010000U,
  0x2000100000004U, 0x1000000040003U, 0x400030002U, 0x4000300020001U,
  0x3000200010000U, 0x2000100000004U, 0x1000000040003U, 0x400030002U,
  0x4000300020001U, 0x3000200010000U, 0x2000100000004U, 0x1000000040003U,
  0x400030002U, 0x4000300020001U, 0x3000200010000U, 0x2000100000004U,
  0x1000000040003U, 0x400030002U, 0x4000300020001U, 0x3000200010000U,
  0x2000100000004U, 0x1000000040003U, 0x400030002U, 0x4000300020001U,
  0x3000200010000U, 0x2000100000004U, 0x1000000040003U, 0x400030002U,
  0x4000300020001U, 0x3000200010000U, 0x2000100000004U, 0x1000000040003U,
  0x400030002U, 0x4000300020001U, 0x3000200010000U, 0x2000100000004U,
  0x1000000040003U, 0x400030002U, 0x4000300020001U, 0x3000200010000U,
  0x2000100000004U, 0x1000000040003U, 0x400030002U, 0x4000300020001U,
  0x3000200010000U, 0x2000100000004U, 0x1000000040003U, 0x400030002U,
  0x4000300020001U, 0x3000200010000U, 0x2000100000004U, 0x1000000040003U,
  0x400030002U, 0x4000300020001U, 0x3000200010000U, 0x2000100000004U,
  0x1000000040003U, 0x400030002U, 0x4000300020001U, 0x3000200010000U,
  0x2000100000004U, 0x1000000040003U, 0x400030002U, 0x4000300020001U,
  0x3000200010000U, 0x2000100000004U, 0x1000000040003U, 0x400030002U,
  0x4000300020001U, 0x3000200010000U, 0x2000100000004U, 0x1000000040003U,
  0x400030002U, 0x4000300020001U, 0x3000200010000U, 0x2000100000004U,
  0x1000000040003U, 0x400030002U, 0x4000300020001U, 0x3000200010000U,
  0x2000100000004U, 0x1000000040003U, 0x400030002U, 0x4000300020001U,
  0x3000200010000U, 0x2000100000004U, 0x1000000040003U, 0x400030002U,
  0x4000300020001U, 0x3000200010000U, 0x2000100000004U, 0x1000000040003U,
  0x400030002U, 0x4000300020001U, 0x3000200010000U, 0x2000100000004U,
  0x1000000040003U, 0x400030002U, 0x4000300020001U, 0x3000200010000U,
  0x2000100000004U, 0x1000000040003U, 0x400030002U, 0x4000300020001U,
  0x3000200010000U, 0x2000100000004U, 0x1000000040003U, 0x400030002U,
  0x4000300020001U, 0x3000200010000U, 0x2000100000004U, 0x1000000040003U,
  0x400030002U, 0x4000300020001U, 0x3000200010000U, 0x2000100000004U,
  0x1000000040003U, 0x400030002U, 0x4000300020001U, 0x3000200010000U,
  0x2000100000004U, 0x1000000040003U, 0x400030002U, 0x4000300020001U,
  0x3000200010000U, 0x2000100000004U, 0x1000000040003U, 0x400030002U,
  0x4000300020001U, 0x3000200010000U, 0x2000100000004U, 0x1000000040003U,
  0x400030002U, 0x4000300020001U, 0x3000200010000U, 0x2000100000004U,
  0x1000000040003U, 0x400030002U, 0x4000300020001U, 0x3000200010000U,
  0x2000100000004U, 0x1000000040003U, 0x400030002U, 0x4000300020001U,
  0x3000200010000U, 0x2000100000004U, 0x1000000040003U, 0x400030002U,
  0x4000300020001U, 0x3000200010000U, 0x2000100000004U, 0x1000000040003U,
  0x400030002U, 0x4000300020001U, 0x3000200010000U, 0x2000100000004U,
  0x1000000040003U, 0x400030002U, 0x4000300020001U, 0x3000200010000U,
  0x2000100000004U, 0x1000000040003U, 0x400030002U, 0x4000300020001U,
  0x3000200010000U, 0x2000100000004U, 0x1000000040003U, 0x400030002U,
  0x4000300020001U, 0x3000200010000U, 0x2000100000004U, 0x1000000040003U,
  0x400030002U, 0x4000300020001U, 0x3000200010000U, 0x2000100000004U,
  0x1000000040003U, 0x400030002U, 0x4000300020001U, 0x3000200010000U,
  0x2000100000004U, 0x1000000040003U, 0x400030002U, 0x4000300020001U,
  0x3000200010000U, 0x2000100000004U, 0x1000000040003U, 0x400030002U,
  0x4000300020001U, 0x3000200010000U, 0x2000100000004U, 0x1000000040003U,
  0x400030002U, 0x4000300020001U, 0x3000200010000U, 0x2000100000004U,
  0x1000000040003U, 0x400030002U, 0x4000300020001U, 0x3000200010000U,
  0x2000100000004U, 0x1000000040003U, 0x400030002U, 0x4000300020001U,
  0x3000200010000U, 0x2000100000004U, 0x1000000040003U, 0x400030002U,
  0x4000300020001U, 0x3000200010000U, 0x2000100000004U, 0x1000000040003U,
  0x400030002U, 0x4000300020001U, 0x3000200010000U, 0x2000100000004U,
  0x1000000040003U, 0x400030002U, 0x4000300020001U, 0x3000200010000U,
  0x2000100000004U, 0x1000000040003U, 0x400030002U, 0x4000300020001U,
  0x3000200010000U, 0x2000100000004U, 0x1000000040003U, 0x400030002U,
  0x4000300020001U, 0x3000200010000U, 0x2000100000004U, 0x1000000040003U,
  0x400030002U, 0x4000300020001U, 0x3000200010000U, 0x2000100000004U,
  0x1000000040003U, 0x400030002U, 0x4000300020001U, 0x3000200010000U,
  0x2000100000004U, 0x1000000040003U, 0x400030002U, 0x4000300020001U,
  0x3000200010000U, 0x2000100000004U, 0x1000000040003U, 0x400030002U,
  0x4000300020001U, 0x3000200010000U, 0x2000100000004U, 0x1000000040003U,
  0x400030002U, 0x4000300020001U, 0x3000200010000U, 0x2000100000004U,
  0x1000000040003U, 0x400030002U, 0x4000300020001U, 0x3000200010000U,
  0x2000100000004U, 0x1000000040003U, 0x400030002U, 0x4000300020001U,
  0x3000200010000U, 0x2000100000004U, 0x1000000040003U, 0x400030002U,
  0x4000300020001U, 0x3000200010000U, 0x2000100000004U, 0x1000000040003U,
  0x400030002U, 0x4000300020001U, 0x3000200010000U, 0x2000100000004U,
  0x1000000040003U, 0x400030002U, 0x4000300020001U, 0x3000200010000U,
  0x2000100000004U, 0x1000000040003U, 0x400030002U, 0x4000300020001U,
  0x3000200010000U, 0x2000100000004U, 0x1000000040003U, 0x400030002U,
  0x4000300020001U, 0x3000200010000U, 0x2000100000004U, 0x1000000040003U,
  0x400030002U, 0x4000300020001U, 0x3000200010000U, 0x2000100000004U,
  0x1000000040003U, 0x400030002U, 0x4000300020001U, 0x3000200010000U,
  0x2000100000004U, 0x1000000040003U, 0x400030002U, 0x4000300020001U,
  0x3000200010000U, 0x2000100000004U, 0x1000000040003U, 0x400030002U,
  0x4000300020001U, 0x3000200010000U, 0x2000100000004U, 0x1000000040003U,
  0x400030002U, 0x4000300020001U, 0x3000200010000U, 0x2000100000004U,
  0x1000000040003U, 0x400030002U, 0x4000300020001U, 0x3000200010000U,
  0x2000100000004U, 0x1000000040003U, 0x400030002U, 0x4000300020001U,
  0x3000200010000U, 0x2000100000004U, 0x1000000040003U, 0x400030002U,
  0x4000300020001U, 0x3000200010000U, 0x2000100000004U, 0x1000000040003U,
  0x400030002U, 0x4000300020001U, 0x3000200010000U, 0x2000100000004U,
  0x1000000040003U, 0x400030002U, 0x4000300020001U, 0x3000200010000U,
  0x2000100000004U, 0x1000000040003U, 0x400030002U, 0x4000300020001U,
  0x3000200010000U, 0x2000100000004U, 0x1000000040003U, 0x400030002U,
  0x4000300020001U, 0x3000200010000U, 0x2000100000004U, 0x1000000040003U,
  0x400030002U, 0x4000300020001U, 0x3000200010000U, 0x2000100000004U,
  0x1000000040003U, 0x400030002U, 0x4000300020001U, 0x3000200010000U,
