/**
  ******************************************************************************
  * @file    svm_data_params.c
  * @author  AST Embedded Analytics Research Platform
  * @date    Tue Jul 11 22:15:34 2023
  * @brief   AI Tool Automatic Code Generator for Embedded NN computing
  ******************************************************************************
  * Copyright (c) 2023 STMicroelectronics.
  * All rights reserved.
  *
  * This software is licensed under terms that can be found in the LICENSE file
  * in the root directory of this software component.
  * If no LICENSE file comes with this software, it is provided AS-IS.
  ******************************************************************************
  */

#include "svm_data_params.h"


/**  Activations Section  ****************************************************/
ai_handle g_svm_activations_table[1 + 2] = {
  AI_HANDLE_PTR(AI_MAGIC_MARKER),
  AI_HANDLE_PTR(NULL),
  AI_HANDLE_PTR(AI_MAGIC_MARKER),
};




/**  Weights Section  ********************************************************/
AI_ALIGNED(32)
const ai_u64 s_svm_weights_array_u64[6578] = {
  0x3f968718bf792bb7U, 0xbe834d3c3edd6807U, 0x3fa1c6be4001cd13U, 0xbfe977a63ea52baaU,
  0xbf77fb8bbf9ba5feU, 0x403020100U, 0xa5440ffe9aU, 0xc0a958adc0b1b1bfU,
  0xc07d06ecc07bd914U, 0xc013c3bdc085ff4bU, 0xc0873926c02383daU, 0xc0360c6bc09dc088U,
  0x3f0738363daaf9d5U, 0xbe58cfe53f17278cU, 0xbe84a76f3faf79a9U, 0xbeccc9d7bd91896cU,
  0x3dc5ff96be9b7a2fU, 0x403020100U, 0x0U, 0x3f8000003f800000U,
  0x3f8000003f800000U, 0x3f8000003f800000U, 0x3f8000003f800000U, 0x3f8000003f800000U,
  0x3f8000003f800000U, 0x3ea76920U, 0x3f80000000000000U, 0x3f8000003f800000U,
  0x3f8000003f800000U, 0x3f8000003f800000U, 0x3f8000003f800000U, 0x3f8000003f800000U,
  0x3f8000003f800000U, 0x3f8000003f800000U, 0x3f8000003f800000U, 0x3f8000003f800000U,
  0x3f8000003f800000U, 0x3f8000003f0fd624U, 0x3f62dcdaU, 0x3f80000000000000U,
  0x3f8000003e211ad2U, 0x3f8000003e003895U, 0x3f80000000000000U, 0x3f8000003f800000U,
  0x3f8000003f800000U, 0x3f80000000000000U, 0x3f8000003f800000U, 0x3f8000003f800000U,
  0x3f8000003f800000U, 0x3f8000003f800000U, 0x3f8000003ef50812U, 0x3f8000003f800000U,
  0x3f80000000000000U, 0x3f8000003f800000U, 0x3f8000003f800000U, 0x3f484e963f800000U,
  0x80000000U, 0x3f8000003f800000U, 0x3f8000003f800000U, 0x3e6571843f800000U,
  0x3f8000003f800000U, 0x3f8000003f800000U, 0x3f800000U, 0x3f8000003f800000U,
  0x3f8000003f800000U, 0x3f8000003f800000U, 0x0U, 0x3f800000U,
  0x3f8000003f800000U, 0x3f80000000000000U, 0x3f8000003f800000U, 0x3d8740823f800000U,
  0x3f8000003f800000U, 0x3f80000000000000U, 0x3f8000003f800000U, 0x3f80000000000000U,
  0x3f800000U, 0x3f8000003f800000U, 0x3f8000003f800000U, 0x3f8000003f800000U,
  0x3f8000003f800000U, 0x3f80000000000000U, 0x3ef03abe3f800000U, 0x3ec97fc53f23e372U,
  0x0U, 0x3d42784fU, 0x3f8000003f800000U, 0x0U,
  0x0U, 0x3f80000000000000U, 0x3f800000U, 0x3f80000000000000U,
  0x3f8000003f800000U, 0x3f800000U, 0x3f8000003f800000U, 0x8000000080000000U,
  0x8000000080000000U, 0x8000000080000000U, 0x8000000080000000U, 0x8000000080000000U,
  0x8000000080000000U, 0x8000000080000000U, 0x8000000080000000U, 0x8000000080000000U,
  0x8000000080000000U, 0x8000000080000000U, 0x8000000080000000U, 0x8000000080000000U,
  0x8000000080000000U, 0x8000000080000000U, 0x8000000080000000U, 0x8000000080000000U,
  0x8000000080000000U, 0xbf80000080000000U, 0x8000000080000000U, 0xbf80000080000000U,
  0x8000000080000000U, 0x8000000080000000U, 0x8000000080000000U, 0x8000000080000000U,
  0x8000000080000000U, 0x80000000bf800000U, 0x8000000080000000U, 0x8000000080000000U,
  0x8000000080000000U, 0x8000000080000000U, 0xbf800000bf800000U, 0xbf80000080000000U,
  0x8000000080000000U, 0x8000000080000000U, 0x8000000080000000U, 0xbf0f2cd580000000U,
  0x8000000080000000U, 0xbf80000080000000U, 0x8000000080000000U, 0x80000000bf800000U,
  0x8000000080000000U, 0x8000000080000000U, 0x8000000080000000U, 0xbf80000080000000U,
  0xbf80000080000000U, 0x80000000bf800000U, 0x8000000080000000U, 0x8000000080000000U,
  0x80000000bf800000U, 0xbf800000be7db7d4U, 0xbf80000080000000U, 0xbf800000bf800000U,
  0xbf800000bf800000U, 0xbf800000bf800000U, 0xbf800000bf800000U, 0x8000000080000000U,
  0xbf80000080000000U, 0x80000000bf800000U, 0x8000000080000000U, 0xbf800000bf800000U,
  0xbf80000080000000U, 0xbf800000bf800000U, 0x8000000080000000U, 0x8000000080000000U,
  0x80000000bf5f7309U, 0x8000000080000000U, 0x8000000080000000U, 0x8000000080000000U,
  0xbf800000bf800000U, 0xbf80000080000000U, 0xbf800000bf800000U, 0xbf800000bf800000U,
  0xbf800000bf800000U, 0xbf800000bf800000U, 0xbf800000bf800000U, 0x80000000bf800000U,
  0x8000000080000000U, 0xbf80000080000000U, 0xbf800000bf800000U, 0xbf800000bf800000U,
  0xbf800000bf800000U, 0x80000000bf800000U, 0xbf800000bf800000U, 0xbf800000bf800000U,
  0xbf800000bf800000U, 0xbf800000bf800000U, 0xbf800000bf800000U, 0x80000000bf800000U,
  0x8000000080000000U, 0x8000000080000000U, 0xbf800000bf800000U, 0xbf800000bf800000U,
  0xbf800000bf800000U, 0xbf800000bf800000U, 0xbf800000bf800000U, 0x8000000080000000U,
  0xbf80000080000000U, 0xbf800000bf800000U, 0xbf800000bf800000U, 0x80000000bf800000U,
  0x8000000080000000U, 0x8000000080000000U, 0xbe8fba29bf800000U, 0x8000000080000000U,
  0x8000000080000000U, 0xbf800000bf800000U, 0xbf800000bf800000U, 0xbe4b4324bf800000U,
  0xbf800000bf800000U, 0xbf800000bf800000U, 0xbf800000bf800000U, 0xbf80000080000000U,
  0xbf800000bf800000U, 0xbf800000bf800000U, 0xbf80000080000000U, 0xbf800000bf800000U,
  0xbf800000bf800000U, 0xbf800000bf800000U, 0xbf800000bf800000U, 0xbf80000080000000U,
  0xbf800000bf800000U, 0xbf800000bf800000U, 0xbf800000bf800000U, 0x8000000080000000U,
  0x80000000bf800000U, 0x80000000bf800000U, 0xbe3a2aa380000000U, 0xbf18d0e080000000U,
  0xbdbd3e5f80000000U, 0xbcdd2dde80000000U, 0xbd0ecec880000000U, 0x80000000bd1822ebU,
  0xbc404514bc035580U, 0x80000000bce16025U, 0x80000000bf800000U, 0xbf80000080000000U,
  0x80000000bf800000U, 0x8000000080000000U, 0x8000000080000000U, 0x8000000080000000U,
  0x80000000bf800000U, 0xbf800000bf800000U, 0x8000000080000000U, 0xbf6695e380000000U,
  0x80000000bf800000U, 0x8000000080000000U, 0x8000000080000000U, 0x80000000bf800000U,
  0x8000000080000000U, 0x80000000bea92844U, 0xbf80000080000000U, 0x80000000bf800000U,
  0xbe9cd6a8bf800000U, 0x8000000080000000U, 0x8000000080000000U, 0x8000000080000000U,
  0xbf80000080000000U, 0x80000000bf800000U, 0x8000000080000000U, 0xbf800000bf800000U,
  0x80000000be09857cU, 0xbf5a0b89bf800000U, 0x80000000bf800000U, 0x8000000080000000U,
  0x80000000bd7ff1c0U, 0xbf800000bf800000U, 0xbf79a4d2bf800000U, 0x8000000080000000U,
  0x8000000080000000U, 0x8000000080000000U, 0xbf26fb9980000000U, 0x8000000080000000U,
  0x8000000080000000U, 0x8000000080000000U, 0x8000000080000000U, 0x8000000080000000U,
  0x8000000080000000U, 0x80000000bed8868eU, 0x8000000080000000U, 0x8000000080000000U,
  0x8000000080000000U, 0x8000000080000000U, 0x8000000080000000U, 0x8000000080000000U,
  0x8000000080000000U, 0x8000000080000000U, 0x8000000080000000U, 0xbf80000080000000U,
  0x80000000be4a8b43U, 0x80000000bf5fc009U, 0x8000000080000000U, 0xbf80000080000000U,
  0x80000000bf800000U, 0x8000000080000000U, 0x8000000080000000U, 0xbf80000080000000U,
  0x8000000080000000U, 0xbf80000080000000U, 0x8000000080000000U, 0x80000000bf800000U,
  0xbe296343bf800000U, 0xbf80000080000000U, 0xbf800000bf800000U, 0x8000000080000000U,
  0xbf80000080000000U, 0xbf80000080000000U, 0x80000000bf800000U, 0x80000000bf800000U,
  0x80000000bf800000U, 0xbf800000bf800000U, 0x8000000080000000U, 0x8000000080000000U,
  0xbf80000080000000U, 0x80000000bf800000U, 0x8000000080000000U, 0xbf80000080000000U,
  0x8000000080000000U, 0x8000000080000000U, 0xbf43b6c4bf800000U, 0x80000000bf800000U,
  0x8000000080000000U, 0xbf800000bf345212U, 0x8000000080000000U, 0x8000000080000000U,
  0x8000000080000000U, 0x8000000080000000U, 0x8000000080000000U, 0xbf80000080000000U,
  0x80000000bf800000U, 0xbf80000080000000U, 0x8000000080000000U, 0xbf80000080000000U,
  0xbf800000bf800000U, 0x8000000080000000U, 0xbf800000bf800000U, 0x8000000080000000U,
  0x80000000bf800000U, 0xbf800000bf800000U, 0xbf80000080000000U, 0x8000000080000000U,
  0x8000000080000000U, 0x8000000080000000U, 0x80000000bf800000U, 0x80000000bcf35734U,
  0xbf800000bf800000U, 0xbf800000bf800000U, 0x8000000080000000U, 0x80000000bf800000U,
  0x8000000080000000U, 0x80000000bf800000U, 0x3f800000U, 0x0U,
  0x0U, 0x0U, 0x0U, 0x0U,
  0x0U, 0x0U, 0x0U, 0x0U,
  0x0U, 0x0U, 0x0U, 0x0U,
  0x0U, 0x0U, 0x0U, 0x0U,
  0x0U, 0x0U, 0x0U, 0x0U,
  0x0U, 0x0U, 0x0U, 0x0U,
  0x0U, 0x0U, 0x0U, 0x0U,
  0x0U, 0x0U, 0x0U, 0x0U,
  0x0U, 0x0U, 0x0U, 0x0U,
  0x0U, 0x0U, 0x0U, 0x0U,
  0x0U, 0x0U, 0x0U, 0x0U,
  0x0U, 0x0U, 0x3c8ea93f00000000U, 0x0U,
  0x0U, 0x0U, 0x0U, 0x0U,
  0x0U, 0x0U, 0x0U, 0x0U,
  0x0U, 0x0U, 0x0U, 0x0U,
  0x0U, 0x0U, 0x0U, 0x0U,
  0x0U, 0x0U, 0x0U, 0x0U,
  0x0U, 0x0U, 0x0U, 0x0U,
  0x0U, 0x0U, 0x0U, 0x3f800000U,
  0x0U, 0x0U, 0x0U, 0x0U,
  0x0U, 0x0U, 0x0U, 0x0U,
  0x0U, 0x0U, 0x0U, 0x0U,
  0x0U, 0x0U, 0x0U, 0x0U,
  0x0U, 0x0U, 0x0U, 0x0U,
  0x0U, 0x0U, 0x0U, 0x0U,
  0x0U, 0x0U, 0x0U, 0x0U,
  0x0U, 0x0U, 0x0U, 0x0U,
  0x0U, 0x0U, 0x0U, 0x0U,
  0x0U, 0x0U, 0x0U, 0x0U,
  0x3c872ebb00000000U, 0x0U, 0x0U, 0x0U,
  0x0U, 0x0U, 0x0U, 0x0U,
  0x0U, 0x0U, 0x0U, 0x0U,
  0x0U, 0x0U, 0x0U, 0x0U,
  0x0U, 0x0U, 0x0U, 0x0U,
  0x0U, 0x0U, 0x0U, 0x0U,
  0x0U, 0x0U, 0x0U, 0x0U,
  0x0U, 0x0U, 0x0U, 0x0U,
  0x0U, 0x0U, 0x0U, 0x0U,
  0x0U, 0x0U, 0x0U, 0x0U,
  0x0U, 0x0U, 0x0U, 0x0U,
  0x0U, 0x0U, 0x0U, 0x0U,
  0x0U, 0x0U, 0x0U, 0x0U,
  0x0U, 0x0U, 0x0U, 0x0U,
  0x0U, 0x0U, 0x0U, 0x0U,
  0x0U, 0x0U, 0x0U, 0x0U,
  0x0U, 0x0U, 0x0U, 0x0U,
  0x0U, 0x0U, 0x0U, 0x0U,
  0x0U, 0x0U, 0x0U, 0x0U,
  0x0U, 0x0U, 0x0U, 0x0U,
  0x0U, 0x0U, 0x0U, 0x0U,
  0x0U, 0x3f2326fa00000000U, 0xbede74afbbd3bdf5U, 0xbf800000bd9af525U,
  0x8000000080000000U, 0x8000000080000000U, 0xbd12a3a9bb14df69U, 0xbbd866eebd836caaU,
  0xbb9f95c6bcc069d6U, 0xbf80000080000000U, 0x80000000bf800000U, 0xbf80000080000000U,
  0xbf800000bf800000U, 0xbf800000bf800000U, 0x80000000bf800000U, 0x80000000bf800000U,
  0xbf800000bf800000U, 0xbf800000be5fc9afU, 0xbf80000080000000U, 0xbf80000080000000U,
  0xbf800000bf800000U, 0x8000000080000000U, 0xbf800000bef9df1cU, 0x80000000bf800000U,
  0xbf80000080000000U, 0xbf800000bf800000U, 0xbf800000bf800000U, 0xbf2ed2e580000000U,
  0x8000000080000000U, 0xbf80000080000000U, 0x80000000bf800000U, 0xbf80000080000000U,
  0xbf800000bf800000U, 0xbf80000080000000U, 0xbe97e8a6bf800000U, 0x80000000bf800000U,
  0x8000000080000000U, 0x80000000bf800000U, 0xbf800000bf800000U, 0x80000000bf800000U,
  0x8000000080000000U, 0xbf800000bf800000U, 0xbf800000bf800000U, 0x80000000bdb6e055U,
  0xbf80000080000000U, 0xbf13fff0bf800000U, 0xbf800000bf800000U, 0xbf800000bf1cf42bU,
  0xbf800000bf800000U, 0xbf800000bf800000U, 0x80000000bf800000U, 0xbf80000080000000U,
  0xbf800000bf800000U, 0xbf800000bf800000U, 0xbf800000bf800000U, 0xbf800000bf800000U,
  0x80000000bf800000U, 0xbf800000bf800000U, 0xbf800000bf800000U, 0xbf800000bf800000U,
  0xbf800000bf800000U, 0xbf800000bf800000U, 0xbf60f4b6bf800000U, 0xbf800000bdda0eacU,
  0xbf800000bf800000U, 0x80000000bf800000U, 0x8000000080000000U, 0xbf800000bf800000U,
  0xbf800000bf800000U, 0xbf800000bf800000U, 0xbf800000bf800000U, 0xbf800000bf800000U,
  0xbf80000080000000U, 0x80000000bf800000U, 0xbf800000bf800000U, 0xbf800000bf800000U,
  0x8000000080000000U, 0xbf800000bf800000U, 0x80000000bf800000U, 0xbf800000bf800000U,
  0xbf800000bf800000U, 0xbf800000bf800000U, 0xbf800000bf800000U, 0xbedaf819bf800000U,
  0xbf800000bf800000U, 0xbf800000bf800000U, 0x80000000bf800000U, 0xbf800000be9cb9eeU,
  0x80000000bf800000U, 0xbf800000bf800000U, 0xbf80000080000000U, 0xbf800000bf800000U,
  0xbf800000bf800000U, 0xbf41cda6bf800000U, 0xbf800000bf800000U, 0xbf0397a6bf800000U,
  0xbf800000bf800000U, 0x8000000080000000U, 0x80000000bf800000U, 0x8000000080000000U,
  0xbf800000bf800000U, 0xbf800000bf800000U, 0xbf800000bf800000U, 0xbf800000bf800000U,
  0xbf800000bf800000U, 0x80000000bf800000U, 0xbf800000bf0220a2U, 0x8000000080000000U,
  0xbf80000080000000U, 0xbf800000bf800000U, 0x80000000bf800000U, 0x8000000080000000U,
  0xbf800000bf800000U, 0x80000000bf800000U, 0xbf800000bf800000U, 0xbf800000bf800000U,
  0xbf800000bf800000U, 0xbf0e13c4bf800000U, 0xbf800000bf800000U, 0xbf80000080000000U,
  0x8000000080000000U, 0xbf80000080000000U, 0xbf800000bf800000U, 0xbf800000bf800000U,
  0xbf800000bf800000U, 0x80000000bf800000U, 0x3f277bf6U, 0x0U,
  0x3f800000U, 0x0U, 0x0U, 0x3f8000003e062fd9U,
  0x0U, 0x0U, 0x0U, 0x0U,
  0x0U, 0x0U, 0x0U, 0x0U,
  0x0U, 0x0U, 0x0U, 0x3f800000U,
  0x0U, 0x0U, 0x3f80000000000000U, 0x3e2f0e1cU,
  0x3f7e224400000000U, 0x3f4404f400000000U, 0x3f4c92c2U, 0x0U,
  0x0U, 0x3f80000000000000U, 0x0U, 0x0U,
  0x0U, 0x0U, 0x0U, 0x0U,
  0x3f7cbd67U, 0x0U, 0x3d8122e0U, 0x0U,
  0x3c3db2df388cd4ceU, 0x0U, 0x0U, 0x0U,
  0x0U, 0x0U, 0x0U, 0x0U,
  0x3f80000000000000U, 0x3f80000000000000U, 0x3f800000U, 0x3f80000000000000U,
  0x3f800000U, 0x3f800000U, 0x0U, 0x3f800000U,
  0x0U, 0x0U, 0x0U, 0x0U,
  0x0U, 0x0U, 0x0U, 0x0U,
  0x0U, 0x0U, 0x0U, 0x3eb59951U,
  0x3f075e9e00000000U, 0x3f1768163ec99bb0U, 0x0U, 0x3def14bdU,
  0x3f8000003f800000U, 0x3f80000000000000U, 0x0U, 0x3f800000U,
  0x0U, 0x3f80000000000000U, 0x0U, 0x3f800000U,
  0x3f80000000000000U, 0x0U, 0x3f80000000000000U, 0x3f8000003f800000U,
  0x3e1667153f800000U, 0x3f8000003ef87350U, 0x0U, 0x0U,
  0x3f8000003f800000U, 0x0U, 0x3f80000000000000U, 0x0U,
  0x0U, 0x0U, 0x0U, 0x0U,
  0x3f023f533f4fa49fU, 0x0U, 0x0U, 0x0U,
  0x0U, 0x0U, 0x3f80000000000000U, 0x3f800000U,
  0x0U, 0x0U, 0x0U, 0x0U,
  0x0U, 0x0U, 0x0U, 0x0U,
  0x0U, 0x0U, 0x0U, 0x0U,
  0x0U, 0x0U, 0x3e9e8a7000000000U, 0x0U,
  0x0U, 0x3f8000003f800000U, 0x3f80000000000000U, 0x3f8000003f800000U,
  0x0U, 0x3f80000000000000U, 0x3f19522bU, 0x0U,
  0x0U, 0x0U, 0x3f80000000000000U, 0x0U,
  0x0U, 0x0U, 0x0U, 0x0U,
  0x0U, 0x0U, 0x0U, 0x0U,
  0x0U, 0x0U, 0x3f8000003f800000U, 0x3f8000003f800000U,
  0x3f80000000000000U, 0x3f8000003ee23b35U, 0x3c86e7d53f800000U, 0x3f800000U,
  0x0U, 0x3f800000U, 0x0U, 0x0U,
  0x0U, 0x3f800000U, 0x0U, 0x0U,
  0x0U, 0x0U, 0x0U, 0x3f800000U,
  0x0U, 0x0U, 0x0U, 0x0U,
  0x0U, 0x0U, 0x0U, 0x0U,
  0x0U, 0x0U, 0x0U, 0x3f800000U,
  0x0U, 0x0U, 0x0U, 0x0U,
  0x0U, 0x0U, 0x0U, 0x3f80000000000000U,
  0x3f800000U, 0x0U, 0x0U, 0x3f8000003f800000U,
  0x0U, 0x0U, 0x0U, 0x3ee9c33f00000000U,
  0x0U, 0x0U, 0x0U, 0x0U,
  0x0U, 0x0U, 0x0U, 0x0U,
  0x3f80000000000000U, 0x0U, 0x0U, 0x0U,
  0x0U, 0x0U, 0x0U, 0x0U,
  0x0U, 0x3f80000000000000U, 0x3ebff8053ba675b0U, 0x3f80000000000000U,
  0x3f57ec55U, 0x0U, 0x3d08dcd100000000U, 0x3d8830dd3db7eac7U,
  0x3bce5b4c3ba670ccU, 0xbf80000000000000U, 0x8000000080000000U, 0x8000000080000000U,
  0x8000000080000000U, 0x8000000080000000U, 0x8000000080000000U, 0x8000000080000000U,
  0x8000000080000000U, 0x8000000080000000U, 0x8000000080000000U, 0x8000000080000000U,
  0x8000000080000000U, 0x8000000080000000U, 0x8000000080000000U, 0x8000000080000000U,
  0x8000000080000000U, 0x8000000080000000U, 0x8000000080000000U, 0x8000000080000000U,
  0x8000000080000000U, 0x8000000080000000U, 0x8000000080000000U, 0x8000000080000000U,
  0x8000000080000000U, 0x8000000080000000U, 0x8000000080000000U, 0x8000000080000000U,
  0x8000000080000000U, 0x8000000080000000U, 0x8000000080000000U, 0x8000000080000000U,
  0x8000000080000000U, 0x8000000080000000U, 0xbed9603980000000U, 0xbf800000bf800000U,
  0x80000000bcb35f95U, 0x8000000080000000U, 0x8000000080000000U, 0x8000000080000000U,
  0x8000000080000000U, 0xbb9f476a80000000U, 0x8000000080000000U, 0x8000000080000000U,
  0x8000000080000000U, 0x8000000080000000U, 0x8000000080000000U, 0x8000000080000000U,
  0x8000000080000000U, 0x8000000080000000U, 0x80000000be0cb482U, 0x8000000080000000U,
  0x8000000080000000U, 0x8000000080000000U, 0x8000000080000000U, 0x8000000080000000U,
  0x8000000080000000U, 0x8000000080000000U, 0x8000000080000000U, 0x8000000080000000U,
  0x8000000080000000U, 0x8000000080000000U, 0x8000000080000000U, 0x8000000080000000U,
  0x8000000080000000U, 0x8000000080000000U, 0x8000000080000000U, 0x8000000080000000U,
  0x8000000080000000U, 0x8000000080000000U, 0x8000000080000000U, 0x8000000080000000U,
  0x8000000080000000U, 0x8000000080000000U, 0x8000000080000000U, 0x8000000080000000U,
  0x8000000080000000U, 0x8000000080000000U, 0x8000000080000000U, 0x8000000080000000U,
  0x8000000080000000U, 0x8000000080000000U, 0x8000000080000000U, 0x8000000080000000U,
  0x8000000080000000U, 0x8000000080000000U, 0x8000000080000000U, 0x8000000080000000U,
  0x8000000080000000U, 0x8000000080000000U, 0x8000000080000000U, 0x8000000080000000U,
  0x8000000080000000U, 0x8000000080000000U, 0x8000000080000000U, 0x8000000080000000U,
  0x8000000080000000U, 0x8000000080000000U, 0x8000000080000000U, 0x8000000080000000U,
  0x8000000080000000U, 0x8000000080000000U, 0x8000000080000000U, 0x8000000080000000U,
  0x8000000080000000U, 0x8000000080000000U, 0x8000000080000000U, 0x8000000080000000U,
  0x8000000080000000U, 0x8000000080000000U, 0x8000000080000000U, 0x8000000080000000U,
  0x8000000080000000U, 0x8000000080000000U, 0x8000000080000000U, 0x8000000080000000U,
  0x8000000080000000U, 0xbf80000080000000U, 0x3f8000003f800000U, 0x0U,
  0x3f80000000000000U, 0x0U, 0x0U, 0x3f80000000000000U,
  0x3f800000U, 0x3f80000000000000U, 0x3f1b8b90U, 0x0U,
  0x0U, 0x0U, 0x0U, 0x3f80000000000000U,
  0x0U, 0x0U, 0x0U, 0x3f8000003f800000U,
  0x0U, 0x0U, 0x0U, 0x3f80000000000000U,
  0x0U, 0x0U, 0x0U, 0x3f800000U,
  0x3f8000003f800000U, 0x3f8000003f800000U, 0x3f800000U, 0x0U,
  0x3f80000000000000U, 0x3f8000003f800000U, 0x0U, 0x0U,
  0x3f800000U, 0x3e373ffe00000000U, 0x3f80000000000000U, 0x0U,
  0x3ee1fd5600000000U, 0x3f800000U, 0x0U, 0x3f800000U,
  0x0U, 0x0U, 0x3f8000003f800000U, 0x3f80000000000000U,
  0x3f8000003f70f829U, 0x3f80000000000000U, 0x0U, 0x0U,
  0x3f80000000000000U, 0x0U, 0x0U, 0x0U,
  0x3f800000U, 0x3f800000U, 0x3f800000U, 0x3f800000U,
  0x3f80000000000000U, 0x0U, 0x3f8000003f800000U, 0x0U,
  0x0U, 0x3f800000U, 0x3f800000U, 0x0U,
  0x3f800000U, 0x0U, 0x0U, 0x3f244bb700000000U,
  0x0U, 0x3f8000003f800000U, 0x3f80000000000000U, 0x0U,
  0x3f80000000000000U, 0x0U, 0x0U, 0x3f8000003f800000U,
  0x3f8000003f800000U, 0x3f8000003f800000U, 0x3f800000U, 0x0U,
  0x0U, 0x0U, 0x3f8000003f800000U, 0x3f8000003f800000U,
  0x0U, 0x3f8000003f800000U, 0x3f800000U, 0x3f8000003f800000U,
  0x3f8000003f800000U, 0x3f8000003f800000U, 0x3f8000003f800000U, 0x3f8000003f800000U,
  0x3f800000U, 0x3f800000U, 0x3f8000003f02378eU, 0x3f800000U,
  0x3f8000003f800000U, 0x3f8000003f800000U, 0x3f8000003c9a629aU, 0x3f8000003f800000U,
  0x3f8000003f800000U, 0x3f8000003f800000U, 0x3f8000003f800000U, 0x3f8000003f800000U,
  0x3f8000003f800000U, 0x3f8000003f800000U, 0x3f800000U, 0x3f800000U,
  0x3f8000003f800000U, 0x3f8000003f800000U, 0x3f8000003f800000U, 0x3f800000U,
  0x3f8000003f800000U, 0x3f800000U, 0x3f8000003f800000U, 0x3f8000003f800000U,
  0x3f8000003f800000U, 0x3f80000000000000U, 0x3f8000003f800000U, 0x3f8000003f800000U,
  0x3f8000003f800000U, 0x80000000U, 0x3f3aa77d00000000U, 0x3f8000003f800000U,
  0x3f80000000000000U, 0x3f800000U, 0x3f800000U, 0x0U,
  0x0U, 0x0U, 0x0U, 0x3f8000003f800000U,
  0x3f800000U, 0x3ebde45e3f800000U, 0x3f44e9503f800000U, 0x0U,
  0x3f8000003f800000U, 0x0U, 0x3f5a5d5b00000000U, 0x3f45363200000000U,
  0x0U, 0x3f800000U, 0x3f800000U, 0x3e65f0c300000000U,
  0x0U, 0x0U, 0x0U, 0x0U,
  0x0U, 0x0U, 0x0U, 0x3f80000000000000U,
  0x3f8000003f800000U, 0x3f8000003f800000U, 0x0U, 0x0U,
  0x0U, 0x3f80000000000000U, 0x0U, 0x0U,
  0x0U, 0x0U, 0x0U, 0x3f80000000000000U,
  0x3f8000003f800000U, 0x3f8000003f800000U, 0x0U, 0x0U,
  0x0U, 0x3f80000000000000U, 0x0U, 0x3f8000003f800000U,
  0x3f800000U, 0x0U, 0x0U, 0x3f80000000000000U,
  0x3f8000003f800000U, 0x3f8000003f800000U, 0x0U, 0x0U,
  0x3f8000003f800000U, 0x0U, 0x0U, 0x3f80000000000000U,
  0x0U, 0x3f80000000000000U, 0x0U, 0x3f800000U,
  0x0U, 0x3f80000000000000U, 0x3f800000U, 0x0U,
  0x0U, 0x3f80000000000000U, 0x3f800000U, 0x3f800000U,
  0x0U, 0x0U, 0x0U, 0x3f8000003f800000U,
  0x3f8000003f800000U, 0x3f8000003f800000U, 0x3e24fed200000000U, 0x3f353c323f800000U,
  0x3e09296b00000000U, 0x3d71a358U, 0x3beaff4b00000000U, 0x3c8121cd3d74f7dbU,
  0x3b0c85213c8d64afU, 0x3f80000000000000U, 0x3f8000003f800000U, 0x3f8000003f800000U,
  0x3f8000003f800000U, 0x3f8000003f800000U, 0x3f17f7003f800000U, 0x3f8000003f800000U,
  0x3f800000U, 0x3f80000000000000U, 0x3f8000003f800000U, 0x3f8000003f800000U,
  0x3f800000U, 0x3eee4f303e911452U, 0x3f50b33f00000000U, 0x3f80000000000000U,
  0x3f8000003f800000U, 0x0U, 0x3f80000000000000U, 0x0U,
  0x0U, 0x3f8000003f800000U, 0x3db013713f800000U, 0x3e816482U,
  0x3cec65aa3f800000U, 0x3f80000000000000U, 0x3ded64c83f800000U, 0x3f8000003f800000U,
  0x3f80000000000000U, 0x3f800000U, 0x3f8000003f800000U, 0x3ed3f7ca00000000U,
  0x3f80000000000000U, 0x3f80000000000000U, 0x3f8000003f800000U, 0xbf8000003f3b7b63U,
  0x8000000080000000U, 0x8000000080000000U, 0x8000000080000000U, 0x8000000080000000U,
  0x8000000080000000U, 0xbf80000080000000U, 0xbf800000bf40b743U, 0x80000000bf800000U,
  0x8000000080000000U, 0xbf80000080000000U, 0x8000000080000000U, 0x8000000080000000U,
  0xbf80000080000000U, 0x8000000080000000U, 0x8000000080000000U, 0x8000000080000000U,
  0x8000000080000000U, 0x8000000080000000U, 0x8000000080000000U, 0xbf800000bf800000U,
  0xbf800000bf800000U, 0xbe0c73a5bf800000U, 0xbf800000bf800000U, 0x8000000080000000U,
  0xbf800000bf800000U, 0xbf800000bf800000U, 0x8000000080000000U, 0xbf800000bf800000U,
  0x80000000bf800000U, 0x80000000bf800000U, 0x8000000080000000U, 0x8000000080000000U,
  0x80000000bf800000U, 0x8000000080000000U, 0x8000000080000000U, 0x8000000080000000U,
  0xbf15142080000000U, 0x8000000080000000U, 0x8000000080000000U, 0x8000000080000000U,
  0x8000000080000000U, 0xbf80000080000000U, 0xbf63167b80000000U, 0x8000000080000000U,
  0x8000000080000000U, 0x8000000080000000U, 0x80000000bf800000U, 0x8000000080000000U,
  0x8000000080000000U, 0x8000000080000000U, 0x8000000080000000U, 0x8000000080000000U,
  0x8000000080000000U, 0x8000000080000000U, 0xbf80000080000000U, 0xbf800000bf800000U,
  0xbf800000bf800000U, 0xbf800000bf800000U, 0x8000000080000000U, 0xbf800000bf800000U,
  0xbf800000bf800000U, 0xbf80000080000000U, 0xbdc4780180000000U, 0x80000000bf800000U,
  0xbf80000080000000U, 0x8000000080000000U, 0x8000000080000000U, 0xbf800000beaa13edU,
  0x8000000080000000U, 0x8000000080000000U, 0x8000000080000000U, 0x8000000080000000U,
  0x8000000080000000U, 0x8000000080000000U, 0x8000000080000000U, 0x8000000080000000U,
  0x8000000080000000U, 0x8000000080000000U, 0x8000000080000000U, 0x8000000080000000U,
  0x8000000080000000U, 0xbf80000080000000U, 0xbfa84ad8beac8e0aU, 0x3e053578bf9afe74U,
  0xbf7d07033f2e794aU, 0xbf2f34a5bf3ecdc6U, 0xbf99d9b1bf1d8cb8U, 0xbf20eb52bf937b10U,
  0xbfb4afefbfa96787U, 0xbfacc814bfa863aaU, 0xbef76c84bed6a7e4U, 0x3e906976bf014479U,
  0xbf29d9a53ef11f43U, 0xbf339cc5bf1fa5dfU, 0xbeac96dbbeb9e8f0U, 0xbeeba2abbeee236aU,
  0xbf0eb12bbf2235ccU, 0xbf3d244cbf182cebU, 0x3d0eb386bedb4967U, 0x3eb179ef3e320241U,
  0xbe14a7e63eef6824U, 0xbec70df2bea5c3d3U, 0x3e37f8e3bd72bb26U, 0xbe747b3fbe6e2a93U,
  0xbdf27020be140fc6U, 0xbe860c9fbe0b02bfU, 0x3e22756cbeba1385U, 0x3e8e443a3ee7a58aU,
  0xbe7aa81b3e811c1cU, 0xbf03b7efbe998f3fU, 0x3e8d9816be6d834cU, 0xbe1bfc413c80b269U,
  0xbb916a1bbf1e575fU, 0xbf031cd2bc8c0309U, 0x3f165454befc64e2U, 0x3f01b8ff3f893dc5U,
  0x3ead83353e1f35e5U, 0xbe041b393e6b0e9dU, 0x3eded60ebe9953c5U, 0xbd1c963a3ef4cf04U,
  0x3eae497b3f4b3207U, 0x3f0d002a3f209a03U, 0xbe24ba40bee09e75U, 0x3ead20fabd1e52feU,
  0xbe9c1b1b3e51eeb1U, 0xbf0f3f89bf13714bU, 0x3d963fcdbe33f7f2U, 0xbe939ac83d672905U,
  0xbe7cef38be8c6901U, 0xbecb8a5dbe900203U, 0x3e17392dbee752adU, 0x3ec85c193f04247eU,
  0xbda6dc653e586cbfU, 0xbed1a888be151769U, 0x3eef5fecbe0e86acU, 0xbd5e201a3e26c17dU,
  0x3c8a64ae3e23c212U, 0xbc0695ef3e80faeeU, 0x3e988a11bed648d7U, 0x3ebc8ebd3e129443U,
  0x3d50fdab3ed4cf63U, 0xbe9088fcbe367ee4U, 0x3f2f8db8bded7c2eU, 0x3d9d3ede3ebaf66fU,
  0x3e3964ee3e167961U, 0x3d7de0f6bda5c125U, 0x3e9ace7fbec5dac9U, 0x3ea7aacf3e48fa04U,
  0xbd9aad323eb50c8bU, 0xbec3c349be4b0d57U, 0x3f00e2dcbc72d6d2U, 0xbd2688e73ebaf66fU,
  0x3e2db643be8af05cU, 0xbe548bd4bda5c125U, 0x3d4760b0beecf44cU, 0x3ec97031be21ac52U,
  0xbea661223eb4f036U, 0xbf0b81e9bea28d91U, 0x3f06c660bdf5ce3eU, 0xbca7f6e83ef019aaU,
  0x3d85f8d63d96a909U, 0xbd2607a4bdb97addU, 0x3eef4226bf036288U, 0x3f03bf643f7bd125U,
  0x3e3342603d53bcd2U, 0xbe6d16c53e72c408U, 0x3d9634d2be9d361dU, 0xbe8002b23e092901U,
  0x3e6507d03f26e9faU, 0x3ecdd3283ec44a16U, 0xbdc32c54bf02b2f3U, 0x3ee129ba3e0a1e09U,
  0x3e9f00ba3c745674U, 0xbe0b2cda3ecc4044U, 0xbc9d1323bed49a1aU, 0xbe82e61abe661843U,
  0xbe3e8fec3f1c4bb3U, 0x3e4607b0bd5a3489U, 0xbefc987ebeeb5868U, 0x3eab8dbabf0c259fU,
  0x3df7b1213e4ee854U, 0xbe8c79ad3ecc4044U, 0xbd3f23cdbebafa44U, 0xbe974941be661843U,
  0xbf140b643dc7b602U, 0xbe8b4412bf120f07U, 0xbe385b6ebef47bbeU, 0x3ec64f5f3d98ef0aU,
  0xbf26c7fe3eb0d343U, 0xbf41dababf2bda74U, 0xbe3286d8be57d3f2U, 0xbedb96bdbea01d0cU,
  0xbea7b611be370b41U, 0xbebbede7bd288a9cU, 0xbc115c34bf02c026U, 0x3ee62d403e2bf6f2U,
  0xbdb6328e3e6fc67aU, 0xbed34359bd581253U, 0x3e986059be47c69fU, 0xbe17b8c73e6753ffU,
  0xbdc3fddf3eee62d5U, 0x3e0c94bbbdf9ea2eU, 0x3e8fb906bee347aaU, 0x3ecc238d3f1a8186U,
  0x3ea01c273e5cbda3U, 0xbe149c573f608027U, 0x3e811676be315ac5U, 0xbe3883913d269682U,
  0x3e7f9d8c3e05af33U, 0x3db12f553ea250f4U, 0x3d055f34bea933eeU, 0x3e5fdf773e625cb2U,
  0x3e53c9c73e8261e9U, 0xbe59f0883f6d06f5U, 0xbe84ec1cbeae387cU, 0xbedb537d3cb681d5U,
  0xbe30c145bf4efc4dU, 0xbf3563fabe90096eU, 0x3ea869a9bec65199U, 0x3eaa37d53ef62712U,
  0x3d87e1c83e42d84eU, 0xbe9f7618bddfaa71U, 0xbdb5cb39beaba005U, 0xbeaa86efbe1157f8U,
  0x3e4435e9bef05d4eU, 0xbea45a093d9678f8U, 0x3eace169beb7c416U, 0x3e9822e33d8a6d81U,
  0x3dd387593ed99198U, 0xbe7b7a54be592f46U, 0x3eefa78fbce9a2f6U, 0xbd7f4d0b3e430196U,
  0x3e849b9bbed55653U, 0xbe812d88be6662a3U, 0x3e791f68bef1ecf1U, 0x3edc877d3ddf0bc8U,
  0xbdd786ad3e7222dcU, 0xbed8b6cfbe592f46U, 0x3e9dc2bbbe8505dbU, 0xbe00e8ef3e430196U,
  0x3dbaeffd3e792c1aU, 0x3da25b37be329fe7U, 0x3eaaac0abedaa06cU, 0x3ec4b9a23e7a89ebU,
  0xbd8e73623e9888baU, 0xbec8092ebd952610U, 0x3f1e94a8bcd4b988U, 0x3cfcab9e3e9f6288U,
  0x3ea47f92bc9aaa66U, 0x3cfa8c5f3df35cb2U, 0x3edaa36ebebf9abdU, 0x3ea90ae33f08acf9U,
  0xbdb2104b3e8608d1U, 0xbed0e9acbe40c61dU, 0x3eee7389be0955bdU, 0xbd656a6f3e77789fU,
  0x3e914359bec6729bU, 0xbe620f7f3dd508e9U, 0x3ea67fbebeda5bc6U, 0x3ec3c9613d3dd1cfU,
  0xbe8fbd993ea54773U, 0xbf064d54bec49980U, 0x3f038091be1aeeeaU, 0xbcc6fa243ee75b29U,
  0x3eaf4844be4f3bf4U, 0xbd95180c3e2edd3aU, 0x3e1a602fbf04078dU, 0x3ef33d043dcbb468U,
  0xbe4026203e8cd26bU, 0xbef2326fbeb52ea9U, 0x3f12a867be3373ffU, 0x3c7fdb983ee4aa63U,
  0x3e467bdd3f0286daU, 0x3e984e833e15200cU, 0x3efe3900beed0eb4U, 0x3ee8b1923edaf432U,
  0x3db048c43e8b24bdU, 0xbe952e783ddcde07U, 0x3f157e17be6c97acU, 0x3d07f7633f07db5dU,
  0x3eec6bab3ea7a0c6U, 0x3ea646053ec60e22U, 0x3eed258ebef2e27eU, 0x3eed9da13ef3bc26U,
  0xbe754bef3eadf764U, 0xbefc8ca8be85a53fU, 0x3f173186bda286c8U, 0x3c796ae43ec50d53U,
  0x3edd67d83e7009c7U, 0x3e801bce3e1cfa2aU, 0x3ec46585bed03066U, 0x3ebb00493ef3bc26U,
  0xbe922e8f3e9c849fU, 0xbf082551bea5c3d3U, 0x3eb8778abc152d7fU, 0xbe03e6753eaa259dU,
  0x3eacb325becdbacfU, 0xbe4d135c3e1cfa2aU, 0xbe472dc1bea5166fU, 0x3e39c0013e2115ccU,
  0x3c2d4c423e870311U, 0xbeaf7f9c3d4d55e4U, 0x3edd4fc0bea27e9cU, 0xbd0cb7613eb03359U,
  0xbeaa50a2bf2bebf6U, 0xbf2f7be6bd885468U, 0x3edbc9fabecf1b2aU, 0x3ebd16e03ec4972aU,
  0xbdafa2473ea146d5U, 0xbecbd0213db8e4beU, 0x3eabb6fc3d67e896U, 0xbe10af373e45b25bU,
  0x3ebf6ed1bea66019U, 0xbe06f8943e156ec8U, 0x3e26b78abed41673U, 0x3eb054ee3d08a185U,
  0xbefb2df63eb194dbU, 0xbf276ad0bf0ef222U, 0x3e9e5b13bd70148cU, 0xbe22dc823ea9796cU,
  0x3e1ce8b1bef01c73U, 0xbeae4ba03de69393U, 0x3ea6506cbed1825dU, 0x3eb8579c3f05a752U,
  0xbea074443e4a6839U, 0xbf10d23abe12859bU, 0xbd629925bea84b0eU, 0xbea21044be196a49U,
  0x3e1d186cbeedebb4U, 0xbeacde2c3d807951U, 0x3df74ca5bec934e5U, 0x3e9f61b13e86f0a6U,
  0xbeb2784c3e4336beU, 0xbf16f355bd4383e0U, 0x3eb7bdcebe81a2c0U, 0xbdc727603ec711e8U,
  0x3da743f4befe7c8bU, 0xbec9ad2a3dc0f1e5U, 0x3f27a59cbed23b30U, 0x3ed3528e3f88c9b9U,
  0x3e10cd673e300820U, 0xbe85e2f63e5f7e7dU, 0xbd83f3b2bebefd99U, 0xbe9a98953e06783cU,
  0x3f078e1ebe820372U, 0x3b3c54543f58033dU, 0x3eeeecd6bee04f3fU, 0x3ed6098e3f02ef08U,
  0x3e7275fd3e9502dfU, 0xbe40cd3e3e5ba3c7U, 0x3e9b0742bdb61ce8U, 0xbe24c47f3e96a406U,
  0x3ed5a1813d8dfcf9U, 0x3e0df8453ed9d18aU, 0x3e7d84fbbef9c8e0U, 0x3ee7063c3f02ef08U,
  0x3ea234fe3e2de468U, 0xbe134ae13e208a3cU, 0x3e430e1ebe243607U, 0xbe615fa23e7e328dU,
  0x3e10cd8e3ef0f43eU, 0x3e7d0ff13ed9d18aU, 0xbcec6740bed100fdU, 0x3ea0230d3e96a7a5U,
  0xbe0de0473e0d6e22U, 0xbee5d4bebd71c463U, 0xbe8f1a93bea43996U, 0xbee5d888bd41f0d4U,
  0xbe64495dbef3ebd9U, 0xbf0471293d266cd2U, 0x3bd66564bee1cb74U, 0x3eb843a33e1fe056U,
  0xbeda4baa3e77c7b6U, 0xbf230ca0be9a33b2U, 0xbd29b9b3bdeb6c60U, 0xbebcee123dd47046U,
  0x3ba59cebbee05e12U, 0xbec968903cc39debU, 0x3e8b76f4bee354ddU, 0x3ecb9f143f28b5b1U,
  0xbe959ecd3e3a2d16U, 0xbf0d5cd1bed7df0cU, 0xbec616dabed5b4daU, 0xbee991fdbdd4a993U,
  0x3c5ec173be79ca3dU, 0xbe8844bb3e94934aU, 0x3e86456fbef280cdU, 0x3ede93fa3ecb3d34U,
  0x3d318aaf3e991b19U, 0xbea198803d5cc0baU, 0x3d891380bde270aaU, 0xbe9b4544bd8953fbU,
  0x3e16c5473e1e3bfeU, 0x3d4cf4103e378fc7U, 0x3e5aa654bf0b71f4U, 0x3f054f183ecb3d34U,
  0x3dd9d1543e744695U, 0xbe902cfb3d5cc0baU, 0x3dee7293be1de0ebU, 0xbe885a76bd8953fbU,
  0x3db783993f3b44f7U, 0x3ec6bc0a3e378fc7U, 0x3ec27287bf359cf8U, 0x3f41ab703f830bc8U,
  0xbe7dbb7f3d6d697dU, 0xbf039030be6b2bebU, 0xbe12304c3e39955eU, 0xbed235963d81085dU,
  0x3e8238323fd3867cU, 0x3f86571e3f183bdbU, 0x3fb63e73be8d2e23U, 0x3ecb4e6e3f591023U,
  0x3eeb26ac3f388b5dU, 0x3dd0f2443f92f076U, 0x3f4483ef3f4c6c02U, 0x3ed35a1f3fce5259U,
  0x3f9f1443bba8d543U, 0x3f240a983fcc50cdU, 0x3f950ab8be46c1b5U, 0x3e77b6853f6d4f9cU,
  0x3ec13ce33f4a5eeeU, 0x3dbb509f3edc4f8eU, 0x3f49bb1b3f30dfb7U, 0x3eb664463fc15fa3U,
  0x3f776a29bf19e75dU, 0x3da1e8c13f7a7389U, 0xbde2b175beb67f53U, 0x3e7112acbe3eaf63U,
  0xbdf604d63e8eb409U, 0xbedaebe7be72e156U, 0xbe804602bcad8d48U, 0xbf0141433e17f53fU,
  0xbe4c847abf715adeU, 0xbf4e46d2be89d587U, 0x3f13cbdfbed8e234U, 0x3ed554cd3ebcbbabU,
  0x3e5d3dd13eba3b5aU, 0xbe40f7ba3e7a7974U, 0x3f4ec081bd1ad022U, 0x3e166fa13f308d07U,
  0x3f2dbeca3dfbb8a8U, 0x3ea77d093ef7312bU, 0x3ead4a56bed4aa4eU, 0x3ebd68f63e19d508U,
  0xbd32635a3e464ffeU, 0xbec52107bcc3be7bU, 0x3f3fba0abd4c96ccU, 0x3de398693f53870dU,
  0x3ecd4a56bd9d8392U, 0x3d1c85553efb3374U, 0x3f6c2ddebed4dc79U, 0x3eee7fea3fbff0e3U,
  0x3e6b297d3ece1d64U, 0xbe2df8c8bcecdb61U, 0x3f43328dbe0787eaU, 0x3e00a1363efee5e8U,
  0x3f44c1f23e97cc47U, 0x3efb4ba13f7ff106U, 0x3f5fc0babec456a7U, 0x3ed553dc3fbff0e3U,
  0x3cbd69013e929d0cU, 0xbea98bf83d38c770U, 0x3f1d2c14ba51a83dU, 0x3ce0fe623ee35200U,
  0x3f2d29cdbe04fb24U, 0x3e2e237c3f7ff106U, 0x3f2cd860bed16fe2U, 0x3ed40b433efe0292U,
  0x3e8c5d7b3ec9145bU, 0xbe12c4c13ecaf75dU, 0x3f275af7baa61767U, 0x3d54cb4f3f415dd9U,
  0x3f3d188fbc5f2fdbU, 0x3e8ffb853f39b698U, 0x3e861ac8beb37efcU, 0x3e8d08e83e2ac17cU,
  0x3d8e90e43ec60dfdU, 0xbe8eab7a3d7672caU, 0x3f176d63bd01304cU, 0x3c60dcb63eb0df8bU,
  0x3ec4a3e5bf18fee1U, 0xbe978f1c3ee04fe2U, 0x3d64bce9bec6f005U, 0x3e98365ebda632b2U,
  0xbd9b468f3e769014U, 0xbece6ab9bdac4651U, 0x38b6fe71be4eb288U, 0xbea731da3dfa1b11U,
  0x3cdf87f1bf1b048eU, 0xbefa4eddbde791bcU, 0x3e3f0846bec7fab1U, 0x3ea2378c3d08a185U,
  0x3e5c71c53ec0224fU, 0xbe3eb9fb3e164303U, 0x3f01a428be24ccd4U, 0xbcdf6dd53ebba2a1U,
  0x3e8acf0dbe6a47d7U, 0xbe030a313df27922U, 0x3da71843beefb2a1U, 0x3ecf10403d730219U,
  0x3e6a27ea3e382f23U, 0xbe4fb69a3e164303U, 0x3d6b75b2be8f6302U, 0xbe89b5fc3e98a89aU,
  0x3dc5f7d43e1bd3b4U, 0x3cc551c33df27922U, 0x3d62b455beec3e1dU, 0x3ec8eaf53ac27700U,
  0x3e78a62e3e0fae30U, 0xbe45d2f83f0a6ba5U, 0x3d8ed701be544b24U, 0xbe90fe173e22b855U,
  0x3dc25c7f3dad978dU, 0xbc9f49263dbc654eU, 0xbdc3d5ffbed7da2cU, 0x3ea537b93ac27700U,
  0x3e09f5a03e83109dU, 0xbe858e483f0a6ba5U, 0xbdd21925bdbd2e84U, 0xbed195a63e22b855U,
  0xbd6fa42abeb1c210U, 0xbebab6d93dbc654eU, 0xbf0b4b3dbee7d40dU, 0x3ea4d670be96582dU,
  0xbebdccb33dd8178eU, 0xbf1a2915bf0da93bU, 0xbef0c9bbbe070d63U, 0xbf209a30bf1d68b2U,
  0xbf25be75bed8934bU, 0xbf2118b7bebda5a9U, 0xbe13d3a1beb56cbaU, 0x3e6a609a3f072a26U,
  0x3b71f38e3e6f25f0U, 0xbeb391bcbdec8379U, 0xbea72634be80bbd6U, 0xbf0160d3bed5ec79U,
  0xbe882fa0bf5f7df1U, 0xbf49de933e715914U, 0x3e2aa117bed6e9e6U, 0x3eb442dfbbde298aU,
  0xbd86c58d3ed98827U, 0xbeb58a1ebe66084eU, 0x3f107cf4bd75ad27U, 0xbb03ec283ed531f4U,
  0x3e5a4e38bde17c49U, 0xbdab7b6d3df8cdfcU, 0x3e35c834bec969b3U, 0x3ea375aebdcce174U,
  0xbddeeeef3eaef65eU, 0xbed07b37be69e304U, 0x3eaf98e43d899a39U, 0xbe0af87d3ea9796cU,
  0x3e4ce929bee8bef5U, 0xbe9d4c3c3df8cdfcU, 0x3e199034bee0572bU, 0x3ebf6aec3c89df65U,
  0xbf075a8b3eadabd8U, 0xbf2e5a64bee4b813U, 0x3f23b022bcd099edU, 0x3d30a06e3f0933c0U,
  0x3e843504be51881eU, 0xbdf50a913e7637fdU, 0x3e6805f9bebbcc75U, 0x3e953a233e909c56U,
  0xbedaceab3ea19261U, 0xbf1f58ddbefe6a23U, 0x3e0bc363bdebdd7aU, 0xbe85288c3e7a2965U,
  0x3e18817abf559621U, 0xbf1298c9bdb92157U, 0xbd8f2832bedcfd0fU, 0x3ead715ebe3eaf63U,
  0xbeddb9a93e26e224U, 0xbf259e46bf0ef222U, 0x3da08523be19d429U, 0xbe9495ab3e13ec17U,
  0xbd03481cbef14219U, 0xbedcee6fbe1279e1U, 0x3db0e370bef72cdfU, 0x3ed922643eb27540U,
  0xbd53e25b3db4f95aU, 0xbec645013c99b729U, 0xbead33c3beaf1f66U, 0xbef1975f3dbeea1aU,
  0xbd40ca813d60cb16U, 0xbdd46b1f3e1a2931U, 0xbdc47719bee12a65U, 0x3eb171953b2e9903U,
  0xbe809d863e7d503cU, 0xbf04fa84bebce415U, 0xbbdde6afbd83e523U, 0xbeb4c63cbdea2fbfU,
  0xbe121c26bea3cf5aU, 0xbec4a28cbe03a38fU, 0x3d3d69e0bea11b44U, 0x3e4c8e5f3f3043d3U,
  0x3d9914553e9d8851U, 0xbe9626e5bd5d35f0U, 0x3debdbc0be7410f5U, 0xbe7d8c523deca736U,
  0xbd960ed1bf67edc6U, 0xbf39fdec3ed50264U, 0x3e8bdeeabee6a9b1U, 0x3ecffdbb3d5ad4e0U,
  0x3dc02e763e96cce2U, 0xbe90cf763dcae163U, 0x3f0600a1bdc76aaeU, 0xbcc9cf8c3ed32d60U,
  0x3ea8ecde3e01591bU, 0x3e0147c63e6bd74dU, 0x3d8fc9b9bf0713c5U, 0x3ef635833c466147U,
  0x3e91c93d3e9d7ee0U, 0xbe1d8b7e3dcae163U, 0x3f16bf26bdacc2f1U, 0x3c6d99b73f08878eU,
  0x3e26be303f525634U, 0x3ef592983e37446dU, 0x3b4f4f4abed1c1bbU, 0x3ea30fd33da505a6U,
  0xbe236e013e7c5ab4U, 0xbeeabb68bd97b7deU, 0x3d9354dbbe542571U, 0xbe9055813e0fe2efU,
  0x3c55ef45bef74140U, 0xbed5fec9bcd240caU, 0x3e472434bf050262U, 0x3ef89baa3e65fd15U,
  0x3f0e29013e819b99U, 0x3ca43b233f2b2eadU, 0x3f3cd48abc91923eU, 0x3dd40a993f5bef76U,
  0x3e392af43f8bcb00U, 0x3f28d7d0b9f1e289U, 0x3e595a2fbef58e57U, 0x3edf266d3eae3a23U,
  0x3ddde5ae3e85aa61U, 0xbe8e45953cc2d40fU, 0x3e2b4483be509ca3U, 0xbe6699943c56587bU,
  0x3d61062b3ea70078U, 0x3deb2a883ddb7180U, 0x3e72ae13bec7ae1fU, 0x3ea5562b3daeb156U,
  0xbcf586c23ec534caU, 0xbeb01fc4b86a6c43U, 0x3e7ea890bb9bcd34U, 0xbe4a3af23dd7210bU,
  0x3e8b1d2fbf004641U, 0xbe98c2babd07eae9U, 0xbb8a1e2cbed93956U, 0x3eac6398be99f88fU,
  0xbec5d1b93e81258eU, 0xbf1bd8c3be5179dbU, 0x3ebf84d0be1d538bU, 0xbddfbfdf3e343558U,
  0x3be76b1ebea5fd85U, 0xbea3e606be41e417U, 0x3f0ef60ebeb08e7dU, 0x3ea078953f15abaeU,
  0xbe258de73e6e3068U, 0xbeec3a8bbd5d35f0U, 0x3efe61bf3d3c05edU, 0xbd2f664e3e3ef86eU,
  0x3ec19b1cbf17944dU, 0xbe9788a53daf1cc3U, 0xbe21e2e7bedd2c95U, 0x3ea8bd50be81309bU,
  0xbe9cce883e9e7920U, 0xbf0b6aa9bea144aaU, 0x3ea390d9bb984466U, 0xbe1d9a9d3e95f7d5U,
  0xbdbb532cbe969e98U, 0xbeb0eacbbe056460U, 0x3ec01458bed24863U, 0x3ebd0fb13e1634a6U,
  0xbd9354003ec18471U, 0xbebf2a47be21f071U, 0x3f072640bcacf67bU, 0xbcd16c713ecbc741U,
  0x3ebbabb5be3e29baU, 0xbd489bf03e2302a5U, 0x3ee57e16be72f0e8U, 0x3e2293d83cb08e26U,
  0xbee9b06a3e99f905U, 0xbf2533b4be9ffbc3U, 0xbe3363c0be2f5464U, 0xbee1308dbea42634U,
  0x3eacf57bbff61e84U, 0xbf92adf3be0d7370U, 0x3fd5ea58be59eb74U, 0x3ec34697401ed46cU,
  0xbf02d1323f060d96U, 0xbf14f9d4be6f06a0U, 0x3f7241fc3e84ebfdU, 0x3e87d9f93fe6894aU,
  0x3fdc324fbfd05037U, 0x3dd083be4024265dU, 0x40037d11bee8483aU, 0x3f4137a34010663bU,
  0x3eb31b8c3f003be1U, 0xbd7cb8193f7eb160U, 0x3f081f9e3f37372eU, 0x3e7124c03ee95fbdU,
  0x3ff8467c3f2dbd95U, 0x3fce761040036163U, 0xbe6dfba6beedda02U, 0x3ebad80e3d34261fU,
  0xbe3e425b3e3de6e1U, 0xbef61f46befe6a23U, 0x3ea7cb5abdcacdc8U, 0xbe141f973f7221d3U,
  0xbe4c43fc3cbdbc6aU, 0xbe40af0dbe0b107eU, 0x3df08ffbbed23344U, 0x3eaadfb43c1fb285U,
  0x3c239a073ee34083U, 0xbe994894be794ddaU, 0x3dc29a003e93399eU, 0xbe6ff2f2be81d85fU,
  0x3d2f5344be80fc38U, 0xbe83d7fcbd272e99U, 0x3db4d3e3bee7d955U, 0x3ec53b49be3fe4d9U,
  0x3cd5224b3ec3532cU, 0xbe9dfb6cbe2ec979U, 0x3ed39d22bc35938aU, 0xbdc4f3e53ef21e3eU,
  0x3e35b5b33d3938d6U, 0xbb8340893cc9821dU, 0x3d57f532beb699baU, 0x3e82b43dbe3b0f01U,
  0x3ceeb5e53ec6387cU, 0xbe9c2249bdc5f861U, 0x3eef72c0bd99071eU, 0xbd78817e3ef21e3eU,
  0x3e190992bf1b08b4U, 0xbedb59943cc9821dU, 0x3e1f99b3bec1930bU, 0x3e97cf5b3e51703eU,
  0xbe23d58f3e046decU, 0xbeecfeaebe29a5dcU, 0xbe9cd1febe81b0e4U, 0xbefc5792bca1e0e1U,
  0x3d6ffa77bf4ed8b3U, 0xbf1a0ab33d732afcU, 0xbddc3928becff650U, 0x3e9a2b16be33ce3dU,
  0xbeb6e2213eba6a92U, 0xbf0ff85abed73a98U, 0x3eba7d5dbd70d10cU, 0xbe003c103f134aa4U,
  0xbd5c09febeec71d5U, 0xbedeed89bca9e258U, 0x3e7a9a9dbed3f967U, 0x3eb5cbec3d77d7f1U,
  0xbe4b451a3e7f44beU, 0xbef7d6d9be742a3dU, 0xbecb4a5dbed0bc78U, 0xbeef6264bed89d3eU,
  0x3e10ca29bf0ad87eU, 0xbec90e6fbe206d7bU, 0x3ec55298beec1926U, 0x3edf114c3f47d651U,
  0xbe67347e3ea53e02U, 0xbefa260fbe4732a1U, 0x3ef97c1bbc5ffd32U, 0xbd4f5cf83e68ac62U,
  0x3e39444c3e67bfb8U, 0x3de569463eac3476U, 0x3de83e49beee561aU, 0x3ecf4abebe751523U,
  0xbe8bfc1d3ee34eadU, 0xbef54cefbf07e12aU, 0x3ec589683c9fdbf7U, 0xbde65a373e4f1d0eU,
  0x3e2cf27a3c501f15U, 0xbcebf895bda8f276U, 0x3e6691cebea7e9e3U, 0x3e76d7a83e75b413U,
  0xbecedd7a3e10b69bU, 0xbf208502be9e0e68U, 0xbea746f0bec8286fU, 0xbee0e2ffbe509218U,
  0x3c8cf431bf94cfb5U, 0xbf589bd8be76a280U, 0xbe1d707dbec61ccbU, 0x3e8a9bd3be6b6973U,
  0xbe34558b3e8ec233U, 0xbeedf314bd101fc0U, 0x3df1489bbe3649baU, 0xbe858d563d83b923U,
  0xbe05b484bf216971U, 0xbf13b011be97ee29U, 0xbc84cab3bf0be4cfU, 0x3efdc79d3c9d36c5U,
  0x3ea4681a3e57afe1U, 0xbe0f202d3f0b6253U, 0x3edf6a24be0b2391U, 0xbd970d433ee3fe32U,
  0x3d8be4fa3f665264U, 0x3ef877e43e0ed19aU, 0x3e557f8ebee6ac55U, 0x3ecb8e733db85d07U,
  0xbce4e82c3ea53949U, 0xbeb77153be7d288fU, 0x3e9f0029be0ec8a6U, 0xbe19d3eb3edbebe2U,
  0x3dfb01e73d84ba21U, 0xbc9970023d86f280U, 0xbdf18e6cbeb166ffU, 0x3e62d9d9bd8b9a8dU,
  0xbee5311e3e41973aU, 0xbf27f88abe6c74d2U, 0xbeb23455be8e7c18U, 0xbf01d497bd725eb6U,
  0xbe594faebf96638bU, 0xbf758eb9be51a7ebU, 0x3dad92f5beb7132fU, 0x3e8568b13dac466aU,
  0xbe28e5603e54e22cU, 0xbeee6645bdcb1bfeU, 0xbe9be2e9be8c3d2aU, 0xbef7a7e7bdc1d42dU,
  0xbd89780abf68e65dU, 0xbf39e2a0bdeb1b93U, 0x3c54afaabef3a33cU, 0x3ed0075d3ef62712U,
  0x3e9a3e583e33c1ebU, 0xbe1deb573e2eac2bU, 0xbe23d153bdf84f25U, 0xbee188b7be848925U,
  0xbd8deaee3e47e685U, 0xbcc4c1a93e14912dU, 0x3e229d63becdeb87U, 0x3ea80bf13c8033b4U,
  0xbf0506c03eb804beU, 0xbf2b0b21bf02bd8dU, 0x3f103bf43cb5a798U, 0xbb48f5dd3f00cb57U,
  0x3e6f012abef51280U, 0xbe9c13b03e7bd41eU, 0x3d03fd59becf32eeU, 0x3ea182f13e4dcfdcU,
  0x3db4478f3d857624U, 0xbe9524c63e433a9eU, 0xbe48c517be920030U, 0xbed508acbd5cd88aU,
  0x3ab56e2ebeecba72U, 0xbed220853d3df6d4U, 0x3fddf540bebbd9a8U, 0x3f1393903fd34843U,
  0x3ea883aa3f24c34bU, 0xbc7e3d233eb47b8fU, 0x3f76a4853f4032e5U, 0x3ef90dce3fd000d5U,
  0x3fbf42093f233c79U, 0x3f9bce243fb4d01eU, 0x3edfe203be8fef1bU, 0x3e59e8f93d941931U,
  0xbed695ef3f08092dU, 0xbf062707bf103b09U, 0x3ed884313ee2b64dU, 0x3cad18063f272254U,
  0x3ead94bfbf8bd975U, 0xbf2149fb3cbbe8aeU, 0x3f21d705bee4202cU, 0x3ee8262a3f103b1bU,
  0x3e3c40bf3ebd75a8U, 0xbe5527953de9b70fU, 0x3f5607efbdca49d5U, 0x3e2b8d403f4ac88cU,
  0x3f4621493e6edda9U, 0x3ee931383f62cd50U, 0x3efab074bec7965cU, 0x3eb830a23eba50bfU,
  0x3edc79c93eb705c5U, 0xbd4561d73f511551U, 0x3ef4067ebd46d87dU, 0xbd6790233f0682faU,
  0x3f15ae55be31755cU, 0x3db089fa3f093109U, 0x3eef920cbee481ddU, 0x3edb84d13ea9644aU,
  0x3e0187d53e949afeU, 0xbe860a093e84f225U, 0x3f5979aa3b8f7199U, 0x3e30b9723f5f4c6dU,
  0x3f293fdd3e2e9262U, 0x3eb0e9613f157399U, 0x3e56e721bec84743U, 0x3ea436af3d77d7f1U,
  0x3eb976dd3e69b9beU, 0xbde3a35b3ea5b52cU, 0xbea737a2bef9ef19U, 0xbec21317bef78e1dU,
  0x3e2dc367bebabb20U, 0xbe885f0dbd68ccc3U, 0x3f5434f2bedde80cU, 0x3ef140853f1d872dU,
  0x3eb2ae663eaad4b2U, 0xbddaa4c33eeef0a6U, 0x3f60d787bda6f1c9U, 0x3e44e1933f8d3eb2U,
  0x3f5dacaa3eb6eb7bU, 0x3f176a6b3f4692b1U, 0x3ec7f19fbef4a8a1U, 0x3eea7add3de64c8dU,
  0x3e29be753ebd1280U, 0xbe617f973d9ca0e0U, 0x3f437d3ebc11a4b1U, 0x3df4da0e3f379d0dU,
  0x3ef87e723ef46be2U, 0x3edd00443ec5affbU, 0x3f27367ebe8e0bedU, 0x3e7a24cb3f63f14aU,
  0xbe06f72b3e82dcadU, 0xbee0a5803e70323aU, 0x3f3802a3bcf278f9U, 0x3dbc88bf3ec25c8eU,
  0x3effc9efbf6d9953U, 0xbedd57ba3ed5ce6eU, 0x3ef85b4abecb5a15U, 0x3ebca3de3f0a2fcdU,
  0x3cbc9e003e756b54U, 0xbeaca6d53e53ee5cU, 0x3f3dd0e8bd84308aU, 0x3ddb73863f0e954bU,
  0x3f06ac85be2b9bc6U, 0x3d5e7e533e1d1695U, 0x3f0c102abed09760U, 0x3ec84dfb3ec0f6c8U,
  0x3e88c2733eb02948U, 0xbe22cb093eaeb37fU, 0x3f1c59e83b245ca1U, 0x3cd139153f18ac2fU,
  0x3f20652abd8ce1d0U, 0x3e34b7d73f0ed0f8U, 0x3ecbeec1bef69ba7U, 0x3eed908f3dac466aU,
  0xbe06851c3ed95436U, 0xbecb1b6ebe812616U, 0x3f0282eebd4c25b2U, 0xbd13ab0e3ec308bfU,
  0x3edd2e3e3e8193f5U, 0x3e85f3333eba5e76U, 0xbe0bcf8bbedeae13U, 0x3eabe77abdf8660dU,
  0xbec4873a3e847778U, 0xbf1b2736beec6d7fU, 0x3de2eeffbd7669a7U, 0xbe8fe59e3e811ddbU,
  0xbe18f003bebf61c8U, 0xbed7ae22be89b227U, 0x3e98b8e9bf006cc1U, 0x3ef3ab1b3edb8eedU,
  0x3d5b62b33e523a3eU, 0xbea3846b3cb88cd5U, 0x3e95a12cbdc6d3e1U, 0xbe2a9e443ed1d4fdU,
  0x3e3753403ef09332U, 0x3e87a4123e12f498U, 0x3b15139fbf12deffU, 0x3f0896673edb8eedU,
  0x3e4cebde3e2e2ff4U, 0xbe6374dd3dc5bdc6U, 0x3e857f0ebdc757d4U, 0xbe3e65a13ed1d4fdU,
  0xbe0c53d53f88e910U, 0x3f01c2163e12f498U, 0x3e5f32ccbedb2c5cU, 0x3ebd45de3ef7f743U,
  0x3d519ece3e92a1c4U, 0xbe9ffe1bbdd03f9bU, 0x3e246e01bdec99faU, 0xbe7b29d03e051fd9U,
  0x3beb0afebd48bf0aU, 0xbe14de3bbd566f96U, 0x3ddf0b03bee03a20U, 0x3ebc994cbe49908aU,
  0xbe2fc5153e80804bU, 0xbeee8ed6bca4e8cfU, 0x3ef70963bc46a8c3U, 0xbd5b6acf3eea0beeU,
  0x3e3caed3be0a1f5fU, 0xbde9be803d46f00aU, 0x3e036a57bee45f8aU, 0x3ec3420ebd14a74eU,
  0xbec431833e9ae9d4U, 0xbf18c7febf1415beU, 0x3ec16feebda95fd7U, 0xbdec34bd3f13a0bdU,
  0x3e31de26be50078bU, 0xbe266ac53d8168dcU, 0x3e664f4dbed38a82U, 0x3eb3dacd3e7213b1U,
  0x3d6245453e1b8efeU, 0xbea375e13e3a3c4cU, 0xbee145a0bec2ee13U, 0xbf01bbb9bdea2fbfU,
  0x3e05f799bee75ba6U, 0xbeae94253ddc4169U, 0x3ede5f78bedf7175U, 0x3ed272643ecda820U,
  0x3cb7df543ea0d583U, 0xbea746a9be97a1e4U, 0x3e644f21be245bbaU, 0xbe4d16743e8de584U,
  0x3e996993bcc0a0edU, 0x3c83692f3e08bf17U, 0x3d849098beeb9a6aU, 0x3ec8a975bde50eadU,
  0xbe7b74a53ea0b475U, 0xbf00efd0bed73a98U, 0x3e60bb10bde28384U, 0xbe56d64e3ed68a57U,
  0x3d195e9ebd841d1aU, 0xbe10988fbe1baa5aU, 0xbc161e6bbebedca3U, 0x3e8995bcbc3c7248U,
  0x3bad1e5d3e86f02eU, 0xbeb150c03ee5f254U, 0xbf398095bedb7329U, 0xbf1f1cd1bf5ba087U,
  0xbdfe9058bf51ca8eU, 0xbf31cc4ebe0bc533U, 0x3de2f5b0bed00628U, 0x3ea79afabd86c4b5U,
  0xbed823113ed300a8U, 0xbf15f14abee413a0U, 0x3ea5d0a33b7de65aU, 0xbe1ab2ca3e76203dU,
  0x3e160d10bf0236e5U, 0xbebcd77a3c5c53f7U, 0x3e5b9772bec46137U, 0x3e9f7b363d08a185U,
  0xbe1718933e7d9257U, 0xbee68af63a9d2036U, 0xbede97f8beb79be0U, 0xbf043f71bf0c97e0U,
  0x3e071135bf4a0c73U, 0xbf0d9507bd67af78U, 0xbd7c3b8abeffa73aU, 0x3edb7a1fbdfd3be6U,
  0xbe26130c3e8cdbdcU, 0xbee98788bda1ff18U, 0xbcedd9fdbdb22300U, 0xbebac87fbcd7b04dU,
  0xbdb7e17d3e0a8aafU, 0xbd917e71be8b3610U, 0xbea5fe54beb08bd9U, 0x3e4a451cbe918255U,
  0xbe803c9c3eb9ca08U, 0xbefcd0f8be8ac8dcU, 0xbe0737efbe3f0ce3U, 0xbed1f1ccbe26de24U,
  0xbebbf4c1bf837d0fU, 0xbf6d46f0befc8a47U, 0x3e37f82ebec86edeU, 0x3ea2556f3d38fbf7U,
  0xbea70d8e3ed251f3U, 0xbf069d37beccf35eU, 0x3e908741bdb40d1aU, 0xbe31c1a63e6b5d27U,
  0x3e4c3325bf1715c1U, 0xbec91eec3ddf59f3U, 0x3d0c003ebef55ed0U, 0x3ed392833d38fbf7U,
  0xbecc79ab3eae42f1U, 0xbf18de85bf0ac532U, 0x3ea61a67be2aba42U, 0xbe0ca5c43ea61c75U,
  0x3d0f35f43d72aa5dU, 0xbd82bf253dde7ad2U, 0x3ebdd49fbeba0e3dU, 0x3e9d961d3e61273cU,
  0xbe0490ad3eab6259U, 0xbed84768bdb169eeU, 0x3f2187903cbb4034U, 0x3d1ddd823f114610U,
  0x3ec00bd6bf013f30U, 0xbe792ede3ea4971cU, 0x3e041cdcbee07436U, 0x3ebe31e9bc63210aU,
  0xbeb3a5803eba822eU, 0xbf0ee989bed0ce14U, 0x3f028eefbc4dba5fU, 0xbd160f443f236f45U,
  0x3e794313be5a57b9U, 0xbe080bcd3eb95b34U, 0x3c3eb700bee3fdd9U, 0x3ebb7310bd6204d1U,
  0x3e8588f73e4c1a9fU, 0xbe390cb93efefff0U, 0xbed0ab71bedd1b49U, 0xbeea8ddbbe7b9e6eU,
  0xbdc41489bd3733a1U, 0xbe40ef52be5c78b8U, 0x3e8f8b9fbedfdb12U, 0x3ec7aecb3db5f21bU,
  0x3e1ee4d43ea2086cU, 0xbe7414643e111f66U, 0x3ed627b7be05781cU, 0xbdaf38da3ec46122U,
  0x3e82ff723da16516U, 0x3d6a4dcb3e945718U, 0x3d4e3ba8bedd0f8aU, 0x3eb4c214ba65fe18U,
  0xbd70c6623e8089bcU, 0xbec7ff94be3535fdU, 0xbf2b7affbee17cdeU, 0xbf160064bf36a1edU,
  0xbd7f517ebed0d206U, 0xbecf59abbd820080U, 0x3fe4e996beb293ffU, 0x3f1170943f93aadfU,
  0xbe833b573f1331d5U, 0xbecea662bea5c3d3U, 0xbe48594c3f037f58U, 0xbe8d3a96beb24641U,
  0x3fcb2e32bf3d3e12U, 0x3efab56e3f6a34d9U, 0x3fdb11e4be8fca24U, 0x3ef0ca043fbc9ddeU,
  0xbe9603b43f03c8d0U, 0xbeea8a59be60e4b1U, 0x3e54eda63eec3aadU, 0xbdb996343e358dbbU,
  0x3fcde37cbf9e494eU, 0x3e639a543fafe162U, 0x3faeb881becb5f5dU, 0x3f07bf423ff2b641U,
  0xbd19e9323f278ea3U, 0xbe6b4cd3be0ff3ccU, 0x3f8ca2293efcfb13U, 0x3edd7e413f2926e8U,
  0x3fae56f23e8caa9dU, 0x3f66190d3ff1446bU, 0xbec80911be312390U, 0xbd147c03becaedbcU,
  0x3dc2a61b3f26467aU, 0xbe1ded6f3e8d4c04U, 0xbdd205923e949658U, 0xbeb26cd7bd27091eU,
  0xbe9121c6bffe36acU, 0xbfc0e92ebe8b204bU, 0x3f963309bdebf530U, 0x3e18f4163f609e45U,
  0xbe0282a53f13368dU, 0xbea774123e0969fbU, 0xbefe06b53ee7971eU, 0xbef131cfbedca666U,
  0x3f7d8e03c0206a27U, 0xbf84ea0c3f2fa1adU, 0x400ad6b9bf2a6990U, 0x3f83e3273ff9a9a7U,
  0x3ea191a63eaa507dU, 0xbe0431d33e8d4c04U, 0x3f011b623ea83a9cU, 0x3caf684f3f3ead13U,
  0x3ffea3043ffc2d27U, 0x4019c2053ff02684U, 0x3fbdbbd2bf00aacdU, 0x3f2ecd2f3f938431U,
  0x3f04b4fb3f1e6b03U, 0x3db9b7653f08d084U, 0x3e25e0b93ec2a515U, 0xbe2085cd3c003fcdU,
  0x3fa8a07b3f62390dU, 0x3f9d295c3f60e10dU, 0x3e98bec9bec927b1U, 0x3eaba1ea3dc208b7U,
  0xbd892b6c3e9f3ab8U, 0xbec5e09bbd00b4eaU, 0x3ecfc0e6bd85bc64U, 0xbdcb6b1e3f08878eU,
  0x3eb97a44bee8e603U, 0xbe60b2d63ea3f117U, 0x3e98b9dabec2219fU, 0x3ea291563dce1f54U,
  0xbc0b20e83e77f6eeU, 0xbeb74f0d3d714f2dU, 0x3e49f774be36e9f3U, 0xbe59991b3ebba2a1U,
  0x3e76fad5bf07bd7eU, 0xbeaa8673bd16e827U, 0x3f0ff7cabede9107U, 0x3edb5d3f3e320241U,
  0x3f83b49e3f255f1cU, 0x3ed941413f9e2e5dU, 0x3f89e37c3d82e6ddU, 0x3ea168fb3f7c38b8U,
  0x3f37f1cb3f841f82U, 0x3f69c2973ec19588U, 0x3dfa076ebf0986daU, 0x3effcc15bd0fd176U,
  0x3f823f073f0854b9U, 0x3ec285f73f9e2e5dU, 0x3f80ba873d02bc8dU, 0x3e89fe433f53870dU,
  0x3e77d1403fda751dU, 0x3f89fa2f3e31845eU, 0x3f98c0eabeebaf89U, 0x3f128b6e3ff7b2c8U,
  0x3f156f153ed2812bU, 0x3d83df4f3f3d2b51U, 0x3f830f653c7e550bU, 0x3e8f75313f7e9364U,
  0x3f8cdfb13f6ed846U, 0x3f8cf7403f880800U, 0x3f0ec74bbec33c23U, 0x3eb8282f3ef891feU,
  0x3f2ca34e3f21f596U, 0x3e470cc03f1e036bU, 0x3f58393b3e9f5b2cU, 0x3e5f47f33f5330f5U,
  0x3f2548df3eab8d55U, 0x3ee013c23f059956U, 0x3e838ab2bea7633bU, 0x3e7a194f3d80c1d1U,
  0x3f0ee78e3ed6c3e4U, 0x3d4b3da73f67e358U, 0x3f283cafbd9b29c5U, 0x3d6514d33f0b8e6cU,
  0x3ed017d8bed0891bU, 0xbe2899033e980674U, 0x3e7868a0bebc28deU, 0x3e96d4f73e75b413U,
  0x3db5093d3e1635afU, 0xbe98064b3ddcde07U, 0xbe0dfbfcbe83a921U, 0xbec91f143d111057U,
  0x3e229a3cbf301358U, 0xbef361973d419246U, 0x3e328411bed4b4deU, 0x3eb1e8febda632b2U,
  0xbe0de6203e9bd132U, 0xbedecbd5beb5d31dU, 0x3ea02901bdb1b1e6U, 0xbe1ea7a53e91eeacU,
  0x3e321ec0bea2234cU, 0xbe6f8930be0e93f7U, 0x3e26afddbedff032U, 0x3ebfbda5bcb54257U,
  0x3eca66993e8c31e1U, 0xbdadb11d3f572f9bU, 0xbdb4c722bec1b256U, 0xbea0397d3e1eaf2dU,
  0x3ddc1c073d6c9ef0U, 0xbcf9c6b7bdb0a323U, 0x3f71c172bf01a05aU, 0x3f154ae43fc53ac7U,
  0x3eb822273e8f96aeU, 0xbddcd3bf3ec7c11bU, 0x3f0f9af0bbbf2540U, 0xbbab17303f0ae23bU,
  0x3f31c22b3f729835U, 0x3f589e773f64011fU, 0x3ed6bc9ebef3d567U, 0x3eeb8c723e88261cU,
  0x3dc9488a3ea542bbU, 0xbe8cb8e13e69c5b6U, 0x3f1daf1a3d3e3b6eU, 0x3cf98d283eeb6451U,
  0x3f09766f3e999292U, 0x3eb3aca33ed12968U, 0x3e8a8b09bee29c0aU, 0x3eca8f753e913711U,
  0x3db1f51a3e50a42cU, 0xbe981e963dd296ceU, 0xbe268162beb8a3c6U, 0xbeba2877bce27363U,
  0x3e167bfcbdc0ee0dU, 0xbddb92d53e1b57fbU, 0x3d317245bece2055U, 0x3ea0ce12bc76786aU,
  0xbd749dd23e830be5U, 0xbec802d7be301260U, 0xbd7f7fd7be5b1ac6U, 0xbeb8c7513dc6fc6aU,
  0xbd9cd5bcbee8da89U, 0xbee1e6ffbe2791adU, 0x3c9a5f12bf09e495U, 0x3efa8ac73e07b31dU,
  0x3e957bf63e9efd56U, 0xbe18261cbddd18a2U, 0x3f185fcabd30e729U, 0x3c8569e03eea0beeU,
  0x3da911123f6ed46dU, 0x3f034b0abd239775U, 0x3f0961e7beed6dc1U, 0x3eec4da53f0b6543U,
  0x3f18d28f3e9d8399U, 0x3d5d12be3f43459bU, 0x3f7178f2be2b34c9U, 0x3e7680ab3f486ddfU,
  0x3f087a523f5ae0cdU, 0x3f31b6483eaffa76U, 0x3d7920e4beaeed51U, 0x3e7276203da9db7eU,
  0xbe3906753e8a096fU, 0xbef0474fbe21f071U, 0xbe7980a0be89ca66U, 0xbee67957be96b259U,
  0xbd146c78bf858366U, 0xbf4bd7bdbcf27a85U, 0xbd6adc98bf023588U, 0x3ee1fbae3de176b4U,
  0xbda6faff3ead5b93U, 0xbec7b01dbe2d8092U, 0x3eabccc63e3c3bf8U, 0xbdf91ebe3d6c8a8fU,
  0xbe3ecb713f04efb9U, 0x3e0a0ed5be350303U, 0xbfb4022fbed1f142U, 0x3e691428bfaadc22U,
  0xbfa5fdbbbe07e603U, 0xbf81cfa7bfa0c3d5U, 0xbf9a79933e863127U, 0xbf7574b9bfa6fca7U,
  0xbfb90061bf8cce3dU, 0xbf9a3e7cbfb56057U, 0xbdf05a86becaf078U, 0x3e93019dbd92db52U,
  0xbe41bfc1becddb7dU, 0xbe893062bea855a1U, 0x3eaa8a12be010d1bU, 0xbe0d999f3f12485aU,
  0x3c6a76adbebdce17U, 0xbeb1452bbd4a4aa5U, 0x3cdab0dabebe6876U, 0x3e8b3ac7be890c1aU,
  0x3dbe7a43bea1c1ccU, 0xbe2292f03df921e6U, 0xbe63a31dbe6ac06bU, 0xbee74da0bdbc72a2U,
  0x3cc3025dbf1f12b0U, 0xbf0025ebbe8c8e8bU, 0x3eb7eab0bec08b03U, 0x3ea50bd2bdb98a13U,
  0x3ea86238beb6d208U, 0x3b95e8493d0faa8aU, 0x3ef3370a3da41c42U, 0xbd5aa9c23eddf076U,
  0x3ed56b95be228ec0U, 0xbb7c43293e0fe52bU, 0x3dea12c8bef4d03cU, 0x3ed7cd773da77092U,
  0xbe38af79bf1627c5U, 0xbdfe6ffdbe9322bbU, 0x3eeffd7cbce4ec8eU, 0xbd7daf573ead8294U,
  0x3e055a183ef4ab6fU, 0x3e7c48213da669e4U, 0xbd1776b0bedd1a1aU, 0x3eaf83b4be7b2072U,
  0xbdaff369bee10562U, 0xbe3e638cbea8fa15U, 0x3eb2ace1bcb40817U, 0xbe0b016a3dcc5df5U,
  0xbca255ff3d09230dU, 0xbdd7742fbec03c47U, 0x3cc3fd7fbec46137U, 0x3e92daf4be843642U,
  0x3e0ba7eabeceda77U, 0xbdaae659bd9f6d49U, 0x3ecc27e9bd610f20U, 0xbdd560143e9c0591U,
  0x3e21f91ebe8bcf26U, 0xbe5b9634be318069U, 0x3f0529f8bec72777U, 0x3eba164b3ed3b36eU,
  0x3dd16e2cbebd0dfbU, 0xbdfd4da7bd8d70a5U, 0x3f3efd33bcf30fc6U, 0x3ddee9863f389f57U,
  0x3f0e2c05bce3c2b3U, 0x3e2245173ebf578eU, 0x3f36dd51bee186ceU, 0x3eebc3c93ed3b36eU,
  0x3eaf3e0fbed31877U, 0x3d2bfc21bd0afc24U, 0x3f4de796bdb7e14fU, 0x3e16e0403f46bf64U,
  0x3f3f0fe03f06cf61U, 0x3f1e42653ebf578eU, 0x3f217cdfbef902daU, 0x3f0150e23e8ecc25U,
  0x3ec0fb97be989bd0U, 0x3bb2f3673c99b729U, 0x3f3a5b0f3cbec902U, 0x3dc935583f30e320U,
  0x3f27ca053f454396U, 0x3f368cce3e79989eU, 0x3f135568beefef5bU, 0x3ef297d73eae3a23U,
  0x3de8883bbe513babU, 0xbe4c78d63d6707f3U, 0x3f3678633e171619U, 0x3dcecbc33ef62766U,
  0x3f159ac83ef107c8U, 0x3ef844403e5788a7U, 0x3f29e720bed83e81U, 0x3edbb16e3ec6675bU,
  0x3da11ff1be747fa5U, 0xbe52fdeabe1b83edU, 0x3f74ec223db989a3U, 0x3e79297c3ef62766U,
  0x3f15f6ed3ec10789U, 0x3edaea3a3e5788a7U, 0x3f37a1f2becd0dbdU, 0x3ed223b53f02a1abU,
  0x3b60d498be909122U, 0xbe6bc29bbdda86d4U, 0x3f7af62f3e061d26U, 0x3e8646bc3f18ac2fU,
  0x3f1937273e86e38cU, 0x3ebac4e03f1e139cU, 0x3f42bf11bee928a8U, 0x3ef96b2d3ed88946U,
  0xbd051184bea6b33aU, 0xbe692b1abe8649b3U, 0x3f8d2f1b3d8c7960U, 0x3ea9ad863f957c0fU,
  0x3f53bfe33f09eba8U, 0x3f2d5d3f3f3268bcU, 0xbcda5da2beae122bU, 0x3e65178dbda3c7c6U,
  0xbec95f21bf085e44U, 0xbe8a6663bf0b69a6U, 0x3ee59b1dbe069c49U, 0xbd8914973e867f65U,
  0x3c0a8271bf247af1U, 0xbf0571d3bdfcd6dbU, 0xbe24d8c6beddc071U, 0x3ea957f13deff83dU,
  0xbe1d3625bf0afcc1U, 0xbe15211ebee7ee55U, 0x3ed38eeabee79e23U, 0x3befe4393f38493fU,
  0xbe40a6963e83bf9aU, 0xbd0a0d1c3e9c3f5dU, 0x3dcfea41beccaeb0U, 0x3ea2a5593d2a7a6eU,
  0xbe27b3c1bee1cbb2U, 0xbe686376be8ea392U, 0x3e5d061b3cd2d03cU, 0xbe5e032a3d83b923U,
  0x3db9cd60be97cbfeU, 0xbe867f2f3c830056U, 0x3d0b0b56bef2efb1U, 0x3ed05ed63d2a7a6eU,
  0xbe038b8cbf143f12U, 0xbdd66e12be8ea392U, 0x3f0a329b3d98eb0bU, 0xbc679d673ed3d991U,
  0x3d95cf253f01bf66U, 0x3e73a0023c830056U, 0x3f023e33bed692c5U, 0x3eccddb33d98ef0aU,
  0x3e279c96bebba721U, 0xbdb684b9bb7a5716U, 0x3f7d5b663d812276U, 0x3e85cf683f4464b7U,
  0x3f0ec6143ec17036U, 0x3ed2aaca3ee8b433U, 0x3eeb0b8dbec5b5d2U, 0x3eb35ec83d98ef0aU,
  0x3dc6185bbf00430fU, 0xbd344f17bb7a5716U, 0x3f7082c23de84b73U, 0x3e70c28a3f491a10U,
  0x3f0d261b3e046c65U, 0x3e81c8953ee8b433U, 0xbdb4eb12bee81dfbU, 0x3ebb03973e224b42U,
  0x3dd57fafbf02c538U, 0xbd082709bd24ae34U, 0x3ed183cabe767596U, 0xbd8fb3933ecfd069U,
  0xbd8863f83ecbc1bdU, 0x3dd9fbaebe140eb0U, 0xbf248527beff5aa8U, 0x3ec0aa04bf25d5acU,
  0xbd5402aebf10c9beU, 0xbd9c9f9abe4732a1U, 0x3f5af459bf0903e6U, 0x3e98927e3f9d0d3aU,
  0xbee161ea3f8274bdU, 0x3ebbab9cbeb736a1U, 0xbf36bf37bf0ffd05U, 0x3eea0d19bf2e4be6U,
  0xbe7af8fdbeb73ea1U, 0xbea84047bea8fa15U, 0x3edd165fbf109263U, 0x3d97fb8d3f6f1af5U,
  0xbf2315783f88bf0bU, 0x3eaec6c3beeb435cU, 0x3f083640bed06fc5U, 0x3ec6e4333e4559a1U,
  0x3e60ff58be808ea9U, 0xbde7b931bb7a5716U, 0x3f1b79cd3dcdef1dU, 0x3cf5b3433e9cb1c2U,
  0x3f06d4133d808250U, 0x3e4a4e743e39cffcU, 0xbe031e50beef4e4bU, 0x3ec2449dbe890c1aU,
  0xbd98f791be878c33U, 0xbe92a1f1be1cccd4U, 0x3ea993963d79949cU, 0xbe12f0e73e93470fU,
  0xbc74d6e83e076c15U, 0xbd24a51fbe9561d3U, 0xbe9427f8bebfd230U, 0x3e762f3abeb9668cU,
  0xbe980a69be517454U, 0xbee727abbed35fe2U, 0x3d076c11bd3b362dU, 0xbea8c4d8bab35b12U,
  0xbea19988bf39eae2U, 0xbf36cccbbeeff2d5U, 0x3dbe43cebed8e234U, 0x3eb1fe74be0108dfU,
  0xbdecb932be37c7a9U, 0xbeb4e411be81ca8aU, 0x3dc353d9bd0cd29dU, 0xbe9555843eb99e0cU,
  0x3dd4db93bea1dc61U, 0xbe898c213dbac43bU, 0xbe9aabf1bed936b2U, 0x3e9c0ecfbee585e1U,
  0xbdadb312be8dc826U, 0xbe925f08beb9095fU, 0x3e48d9ac3d767ce8U, 0xbe67f34dbe8bef44U,
  0xbe9f5932be1fa684U, 0xbeb14df2befd8fa4U, 0xbef6aa31befe7797U, 0x3ec58282bee585e1U,
  0xb873840abeb93323U, 0xbe402013be81ca8aU, 0x3e462140bd82b789U, 0xbe6b7ee5be0945a8U,
  0xbefa52723eeaeabfU, 0xbc34efbbbeebeb98U, 0xbde3a4ecbed10e30U, 0x3e9b6631bcef487aU,
  0xbd7f34dcbe7a247fU, 0xbe943f84bdf95c81U, 0x3e979e973d62c114U, 0xbe297bbf3d891aaeU,
  0xbe08229cbe63fdbbU, 0xbea2b9e6be5a47c2U, 0xbee3ddc5beeaa781U, 0x3eaca6eebf07ea82U,
  0xbed39b1ebe8b089cU, 0xbef55154bec918a9U, 0x3d1841a03c5226fcU, 0xbea79532bd3c8f49U,
  0xbed500e2be226f6cU, 0xbec57a0dbf0a0b36U, 0xbf0907dcbec6e2d1U, 0x3e7282f2bf1dfa2cU,
  0xbe035ab2be3af3cdU, 0xbeb83021be7fba5eU, 0xbdb97898bdc25606U, 0xbecda942bd3c8f49U,
  0xbf0679b3bf1d616aU, 0xbf37693ebf363fa4U, 0xbeb34a54bec79e48U, 0x3e826aacbeef3191U,
  0x3ceefe96beca7b69U, 0xbe19e797be7bdfa8U, 0x3e493c24bd5eff53U, 0xbe6a204a3e6f664fU,
  0xbe823077beac2e04U, 0xbee15d16bee96c79U, 0x3e98c820bec14679U, 0x3ea178b93ec8378dU,
  0x3d659ef7be7b1096U, 0xbe5e23c5be6b2bebU, 0x3d0c18bbbe02e45bU, 0xbea44888bc179067U,
  0x3e8cd477bf0a2defU, 0xbea43d103e084937U, 0x3e17a907bef3e29bU, 0x3ed8c18e3c9d36c5U,
  0x3e84b713be09ed68U, 0xbe0839c3bc63095eU, 0x3e78e962bbdc994aU, 0xbe4dc9d73e74c7daU,
  0x3e68335a3e8e350fU, 0x3e2b80e03d700480U, 0x3ee33068becd89d5U, 0x3ebc32533ecc72aaU,
  0x3e48d2d8bda57be4U, 0xbe42ce8a3db3c121U, 0x3ec2c1dc3e04dcb2U, 0xbdd6aa343e0fe2efU,
  0x3ed074e6be19ee4cU, 0xbb86475f3e9323efU, 0x3d8bdbd7bea9ecc1U, 0x3e666a443df9a3edU,
  0xbdf161ccbde99492U, 0xbec38249beb0af80U, 0xbe005f32bdbcf5f7U, 0xbed8bd86bdc1d42dU,
  0xbd3c61b3bf815f50U, 0xbf47c4e63a80a0b4U, 0x3f4e9418bee26c84U, 0x3ef4f98d3f8188f5U,
  0xbe7082893db56aadU, 0xbf0275eabe9658fdU, 0x3edaf19fbe270bc1U, 0xbd99a5c83e0fe2efU,
  0x3f30c7d9bd0d551cU, 0x3e735e4c3f8177c9U, 0xbd1d5681bf022069U, 0x3ee2d69f3d55ff08U,
  0xbd1e0dd8bec3b688U, 0xbe49ddd7be2aeec3U, 0x3f19b1ce3d50588eU, 0x3cad5d7b3f07db5dU,
  0xbba1600f3f3494cfU, 0x3ea87fcebdef1f7aU, 0xbdbfbae8bec6890cU, 0x3e8e95ab3eb91b49U,
  0xbd7ac6fbbe12be66U, 0xbeab5675bdcb1bfeU, 0xbd9227603dbd5dd7U, 0xbec5eca1bec6740aU,
  0xbe336395bf0eb762U, 0xbf0ca7623e5cee09U, 0xbebf3332bebbaa22U, 0x3e62ebccbeef3191U,
  0x3e4bbc033c9c66c9U, 0xbe57ca4d3db8e4beU, 0xbe9ed9333df077cfU, 0xbf070ba6becd2df7U,
  0xbee9fa89bf30c343U, 0xbf3e195ebf00da7eU, 0x3ed099f8beb7a1c3U, 0x3e9d4d1b3f3e2aa1U,
  0xbe17f4723e2e720fU, 0xbee97023bdaed820U, 0xbd94277c3d0e392aU, 0xbec97de0beeb72a4U,
  0x3ea0b1adbf620973U, 0xbf0389073f23314bU, 0x3ebdfddfbef3dd53U, 0x3ee809a13f1c045aU,
  0xbe6337b0be609d9aU, 0xbecc1c6abe689a1cU, 0xbdba4f54bdb1b1e6U, 0xbece40a0beeb72a4U,
  0x3e77a29f3d1f51f5U, 0x3ccb51103efd6b4dU, 0x3fd076c2beb53000U, 0x3f095d45402ed8c8U,
  0x3c213766be8167dcU, 0xbe774b2a3ec67834U, 0x3e1d88f73ee50ccaU, 0xbe03311e3f236f45U,
  0x3fb1c6fdbebddaa3U, 0x3f09e85d401d242cU, 0x3fc3c566bee7c192U, 0x3f21e72e402ed8c8U,
  0x3d853b9dbec29681U, 0xbe0e58683ec00bb0U, 0x3e23ee593e96e820U, 0xbe4619a53f0ce6cfU,
  0x3fa51ce63eb7f43bU, 0x3f64d39d401d242cU, 0x3fda0946bea7c790U, 0x3f05eec7400e48acU,
  0xbdd6430ebea5397cU, 0xbe8af483bb7a5716U, 0x3dfec0ce3eeaaa1cU, 0xbe0de41c3f318f51U,
  0x3fb3041cbf002853U, 0x3ef0c98b40061c05U, 0x3fca97c1be7bcf99U, 0x3ecc16df400e48acU,
  0xbee3e8e1be8bb750U, 0xbefdf15bbdd2d169U, 0xbe0027db3ed71d69U, 0xbe9803723e41a933U,
  0x3fa1598bbfb15872U, 0xbe25026d40061c05U, 0x3f4b7404bebc5b09U, 0x3ec406ee3ec0f6c8U,
  0x3e830968be9ec027U, 0xbd8195ff3f703d37U, 0x3d85efd63ea50b58U, 0xbe7379e2bc6da914U,
  0x3f098727be3b6debU, 0x3d529a133f28deb8U, 0x3f2f40e2be2a5a39U, 0x3de359e73ec0f6c8U,
  0x3ebdad80bec2cf2aU, 0x3d2b069a3f703d37U, 0x3e5cabf83f0660daU, 0xbd51745c3eff9219U,
  0x3f0c4e98bfb22496U, 0xbf2fef1a3f28deb8U, 0xbe34dfafbecbfdc9U, 0x3e9116a8be1a6b8eU,
  0xbe7771cebe815e6aU, 0xbec8c20cbf209c8dU, 0xbe1f752ebbeabc82U, 0xbee49f9f3ec1b05dU,
  0xbe788bf3bf1476d6U, 0xbf177316bd74ce80U, 0x3dca7f94beed92b8U, 0x3ecd5fcebd0625c5U,
  0x3d80bbe6be90e620U, 0xbe46c1563c4ca612U, 0x3eeec344bd77e2a8U, 0xbd7f4b333eec1082U,
  0x3e479d023e80ad90U, 0x3e0a05603c90fbd0U, 0x3e20fbf7bed0f66dU, 0x3eabe4f9bb90cc07U,
  0x3d2c19eebe57192fU, 0xbe779b843c4ca612U, 0x3ea29637bd64e355U, 0xbe1dcc293eec1082U,
  0x3e58bde6be804447U, 0xbe3107ac3c90fbd0U, 0x3defb0aebee3eb5dU, 0x3ec1efc53ed14882U,
  0xbc0f64c73caced77U, 0xbeb29ddcbeb864ebU, 0xbe558116be183ee2U, 0xbeee13e1be8d47a6U,
  0xbc707bd0be3cb347U, 0xbe7716943e5ef09bU, 0xbe9a775dbef7ddc6U, 0x3ec4b057bc026c26U,
  0xbe2381e6bdd79426U, 0xbed2d02dbe913560U, 0x3c7002a9bdd974f4U, 0xbeabf370bf022ae3U,
  0xbedb35fe3e16a17aU, 0xbe454f3abe20b2faU, 0xbe96aac1becf6518U, 0x3e8f7263bee14ac4U,
  0x3d67943fbc3a857fU, 0xbe992453be4d9f25U, 0xbe5263f73ccd37a0U, 0xbef3b937bef18060U,
  0xbea2a961befd6b0eU, 0xbf110288be88c9e3U, 0xbeab67e6bebd1923U, 0x3e6a739dbee14ac4U,
  0xbc60cd35be90bba1U, 0xbe761da5be4d9f25U, 0xbe2b727f3de0db97U, 0xbee2703dbedf572cU,
  0xbea3ccb7bf3201f1U, 0xbf3225eabe88c9e3U, 0xbe629469bedd2206U, 0x3ea552e6becfc394U,
  0xbe721c52be99e656U, 0xbeb8a9f9be812616U, 0x3dd4933d3dfe043aU, 0xbe8c8985bc971dcbU,
  0xbe4a7794be6c2bdaU, 0xbeb322a1bee8cafbU, 0xbddfa335becc1830U, 0x3e94fd6dbd97b12aU,
  0xbd0026d6be308cbdU, 0xbe9b9528be951016U, 0xbe181c2e3d4bed8cU, 0xbee0d4b0beb9ac60U,
  0xbe19817ebf04d3a9U, 0xbf0398e1be9a2300U, 0xbed6d8adbee935dbU, 0x3eabd4e5bf1971b2U,
  0xbe962558bebea40dU, 0xbeb0a119bedf9477U, 0xbdf3a477bdea063aU, 0xbed54152beab8c53U,
  0xbecf986dbe0db5e5U, 0xbebcedd5bf1b670aU, 0xbf05c2c3bebd97e0U, 0x3e5acadbbedd0fa6U,
  0xbeaa141bbe23b667U, 0xbefdce03beb29cdbU, 0xbe2f796ebe6f47b3U, 0xbed71360becbd594U,
  0xbf13dbeebf55faa2U, 0xbf603acebf0bfb59U, 0xbf2171f4bedfc34fU, 0x3e96d3febecf28d9U,
  0xbe06aeccbeb61529U, 0xbe888101beb29cdbU, 0xbed9add3beb2eee4U, 0xbf042e9dbeb6fb9aU,
  0xbf2265a6be817a6fU, 0xbf03e9a8bf06e940U, 0xbf2a7d36bed74b98U, 0x3e8a41dabf00f71bU,
  0xbe610a01be4fe7b4U, 0xbecfc826bf2f10b6U, 0xbdf02a51beb81fd3U, 0xbead394abd8141abU,
  0xbf292c72beb820b7U, 0xbf178987bf21623eU, 0xbf2c92e3bef92a75U, 0x3eb750e2bf267067U,
  0x3bf2d00c3dde2449U, 0xbeb2e909be622d98U, 0xbe9ff315bed7246eU, 0xbed43b05be9a0f50U,
  0xbf3db72f3e0aa7d9U, 0xbe953ee6bf2eb310U, 0x3e4d4e1fbed7f737U, 0x3eb7ea643f18169aU,
  0x3ddfec793e3b0649U, 0xbe90cf71be622d98U, 0xbc9c2673be26b6eeU, 0xbeb1b3f5be9ec4aaU,
  0x3d5ea3f8be4c4faaU, 0xbe6014503ef1430dU, 0x3e34af81bec76ec1U, 0x3ea0d0fc3f18169aU,
  0xbde28639be270851U, 0xbeb70208be420f05U, 0xbd34dd32bd0bcab6U, 0xbec15122be26de24U,
  0x3d57c79cbf091074U, 0xbedd538e3ef1430dU, 0x3e3cc639bec2aaebU, 0x3e9b2cebbd892fa1U,
  0xbef9dc193d8d0f80U, 0xbf2cdc6ebf150c6cU, 0x3ee0aeb63ab1ec42U, 0xbda483853e9aad2eU,
  0x3e1df8e6bf22db15U, 0xbee3ef1bbe34d264U, 0xbea2625abed858e8U, 0x3e9a2d05beea5bb9U,
  0xbe5f5e60be0e21f6U, 0xbedec03fbebb9b2dU, 0x3ce0633c3d9ae7ffU, 0xbea8256cbddf6ca9U,
  0xbe9147d6becc9769U, 0xbefc082cbef45629U, 0xbed95b7abeb98795U, 0x3e58803fbef5d79aU,
  0xbe29855bbd673897U, 0xbedd5ac4be951016U, 0xbe6fb37f3ce9c977U, 0xbefc9f5abee564e8U,
  0xbecfd719bf719fa7U, 0xbf633cd9bf044276U, 0xbef36b47bed0b9b3U, 0x3e88d906bf053239U,
  0xbea3c85abea8ee8fU, 0xbec6fa0abf0cb28dU, 0xbebf7941be6c0a4cU, 0xbf0a8136bed54047U,
  0xbef04ccebf19daebU, 0xbf306828bf1a2070U, 0xbea13148bed81442U, 0x3e99ef00bf053239U,
  0x3c3716b6be52d1bdU, 0xbe86902abec1633eU, 0x3cc2a3863c65009cU, 0xbeabc9b1bd521575U,
  0xbe8a340fbe8c2cbdU, 0xbecffb1abefb4804U, 0xbed50f97befbfb45U, 0x3ec4f335bf1d5f71U,
  0x3b99c295bea24f73U, 0xbe57c05ebec1633eU, 0xbc376136be02a261U, 0xbeb2809abd0c2168U,
  0xbec131c83e8f4625U, 0xbdb7df22bf14f8d8U, 0xbc623b44bee5de63U, 0x3ebc621b3ca6e276U,
  0x3d8af170be33dea7U, 0xbe760391be5e52e3U, 0x3dc49ca2bdd193feU, 0xbe92a96c3c15c5f9U,
  0xbd5b89473c4ebe30U, 0xbe08b6c1bdcb0f78U, 0xbd114428bee903b1U, 0x3ebf3b9f3ca6e276U,
  0x3d7721e3bdeb3416U, 0xbe89088fbe897ff5U, 0x3dd17f3bbda06420U, 0xbe91e8713d81085dU,
  0xbdbcbdb83d3e2c13U, 0xbe03d49abdcb0f78U, 0x3dcc3e37bebbe194U, 0x3e8ca6d13e129443U,
  0xbee1f8d13d4e92bbU, 0xbf240bcdbf12ccd7U, 0x3e948a17bcf9d5fcU, 0xbe2ffd293e06783cU,
  0xbb4fbabbbf3d2ebeU, 0xbf1681d3bdee65b1U, 0xbeaf41bcbecf57e5U, 0x3e8d0876be77800fU,
  0xbe613482bdb70afeU, 0xbee97a6abec2ac25U, 0x3d7d0999bd598c6aU, 0xbe9f8aaebe07ed45U,
  0xbeb3092abf00d148U, 0xbf156f0ebe9b1bf1U, 0xbf04d486beb5d3b3U, 0x3e466845be77800fU,
  0xbeba2a1f3d401ce2U, 0xbf16b50fbec2ac25U, 0xbec77f4ebd81d556U, 0xbf16a41ebf4dd694U,
  0xbf23ab33bf8ce0c6U, 0xbf8872f0be9b1bf1U, 0xbf3f6b7bbec0dcdcU, 0x3e52fc1abf47ae95U,
  0xbea4a9c63d7c766fU, 0xbf10459cbf179e3aU, 0xbf045c6d3dd011c4U, 0xbf2802eabf5a4825U,
  0xbf59587dbf7917a7U, 0xbf84efe0bf5e69d9U, 0xbea8f65abebb3de1U, 0x3e6601283d880295U,
  0xbed7fcb73e51eeb1U, 0xbf234c81bf17f074U, 0xbebf10793d738ae7U, 0xbf13690abf3c0378U,
  0xbeee1d80bf853c35U, 0xbf789ecbbd1db853U, 0xbf00e90fbedc1f45U, 0x3e96d9abbd2328d6U,
  0xbf5360dbbda00642U, 0xbf55a124bf5e9a20U, 0xbf2177eabea081a8U, 0xbf263b30bf400ca0U,
  0xbf2a9eb3bf34c49bU, 0xbf5178a5be16776eU, 0xbf9927e5bec2b2d7U, 0x3e43936cbf8ec129U,
  0xbf0f371a3e60a6a5U, 0xbf3a8284bf28f66bU, 0xbf5e4593be54092aU, 0xbf566402bf8ae79aU,
  0xbf9f61e7bf9348d5U, 0xbf9c7a57bf8fa93dU, 0xbf21f2dbbec00c46U, 0x3e58bb1dbe73dfadU,
  0xbe1abf383e13cfdcU, 0xbeea404cbe0eaae5U, 0xbf22be23bd8607cbU, 0xbf3d41c7bf456e2bU,
  0xbf36e648bf76c2b7U, 0xbf7faf66beb64d83U, 0xbf06b56ebef321dcU, 0x3eb49ec5be73dfadU,
  0xbf051d50be88b5abU, 0xbf0a81dcbf0174a6U, 0xbf0b1a69be41bceaU, 0xbf27cc49bf2478b8U,
  0xbf245b2bbe6d26daU, 0xbf00ee99beb64d83U, 0xbf0c626cbece8f3aU, 0x3e82f613bf28db53U,
  0xbf316385be100d06U, 0xbf3863fabf52b7c5U, 0xbed64ef93df7c1f8U, 0xbf17a027befaeb13U,
  0xbf20fc99bf588866U, 0xbf65dd53bf4badbcU, 0xbf2619bdbe71ce78U, 0x3ccbee7bbf1583f2U,
  0xbf40c189bdce3581U, 0xbf4767f8bf52b7c5U, 0xbf258afe3ea58128U, 0xbf22bfdabf1cbc81U,
  0xbf38770dc0092803U, 0xbfe1f028bf3b38d5U, 0x3fb38448bec1e241U, 0x3f040e2e3f8c6a1bU,
  0x3e653794bdf3061bU, 0xbe24dc463e29888eU, 0x3ebd5b833f04dc12U, 0x3cf603fb3f0580b0U,
  0x3fa2c40fbdd06566U, 0x3f1af7203f728472U, 0x3f845c1ebef87c32U, 0x3f12b6f23f7f7187U,
  0x3e6fe972be6a3e5bU, 0xbde8ed723e29888eU, 0x3e70c3733eccc042U, 0xbdd8dd7d3f0580b0U,
  0x3f6918063f1153f4U, 0x3f3fe7713f504660U, 0x3f578762bec7d85eU, 0x3ed6be5e3ec3fc6fU,
  0x3db74be3be912382U, 0xbe35ff3abda1ff18U, 0xbeedf3203f0585b8U, 0xbeced49fbefd9bd9U,
  0x3f42514bbee8d7f4U, 0x3cc8393c3e92a5b5U, 0x3f0c385bbec48b76U, 0x3eb900e33ec3fc6fU,
  0x3e0feac3bf08a9d1U, 0x3b1952913ca3fe62U, 0x3d9fb6cc3e09af61U, 0xbe939830bdbc72a2U,
  0x3eefd5efbe56a95cU, 0xbbbdde8e3e92a5b5U, 0x3f133f70bedb9355U, 0x3ed896613f17c93dU,
  0x3f0e3b93be4e354dU, 0x3da3ae0e3f011b19U, 0x3f37c5d53dba3349U, 0x3dc61b203f8dbfd7U,
  0x3f1ed8f73ede6d30U, 0x3ef7c19e3f67cbb5U, 0x3f0a6567bf017b63U, 0x3f0418a63f17c93dU,
  0x3ef1a144bd44fd09U, 0xbc8ceb803ee92896U, 0x3f43e3bc3d1cf32fU, 0x3df9796d3f896096U,
  0x3f11c4f83f69ac1eU, 0x3f403c9e3f67cbb5U, 0xbea6e95abed9a04fU, 0x3e9b7186be856bb8U,
  0x3ca27a16bd93a13eU, 0xbe9d67eabe3a599aU, 0x3f16fa3bbe1e22e4U, 0x3cb9d1dd3f4c7707U,
  0xbe879d053cf52d0cU, 0xbe567ac6bdddd25fU, 0xbf01dc54be958387U, 0x3de2c99dbef23738U,
  0xbea240523e219bb9U, 0xbf11a919be3a599aU, 0x3ed81210bd53ce1bU, 0xbdb857463f4c7707U,
  0xbeb5bbdebfa2952fU, 0xbf89ffd5bdddd25fU, 0x3f0b046bbe86f8a7U, 0x3e54ea913ee67014U,
  0xbee7dd993bba7bd8U, 0xbf232bd2beca6190U, 0xbe9a97413eaa3790U, 0xbee277c93da40264U,
  0x3ed5bd6dbfdbae9eU, 0xbf7830893e96e6adU, 0x3f2aeab4bef649cdU, 0x3f01177f3ecc72aaU,
  0x3e36d4dabe803039U, 0xbe0e58dfbe27140eU, 0x3e7a1cd53ec37925U, 0xbddf16a63eb39050U,
  0x3f1d15c43eeb11d3U, 0x3efd79363ebc7fa4U, 0x3fa34ad0bec260fdU, 0x3efafe833f950704U,
  0x3dcef2d6be89d0f9U, 0xbe3614a03d8aa43bU, 0xbca3c0c13f004b5dU, 0xbe44a01bbd8eb586U,
  0x3f9039e8be9948a8U, 0x3ec162333f82043fU, 0x3f921cd2be83f309U, 0x3ea0c0a93f950704U,
  0x3d3bfb86bec419b0U, 0xbe17de603c4ca612U, 0x3df07bbf3e8d267cU, 0xbe66e8ecbd8eb586U,
  0x3f7a104dbf910e84U, 0xbe6eb0133f82043fU, 0xbda6a1acbea4530dU, 0x3e44e3d8be77800fU,
  0xbd069057bbf203b8U, 0xbeb7bfebbe315b47U, 0xbe025810be1d2dd7U, 0xbed45368bea2cdd2U,
  0xbe1f7b29bf8b184fU, 0xbf60e656bea20103U, 0xbd01a35bbefb4516U, 0x3ed76c3cbe16cb2cU,
  0x3d8d6eeebe754f67U, 0xbe58adafbea0a036U, 0x3e80fa6dbe134feeU, 0xbe3dd6e93e8f3de7U,
  0xbcb998753ec808f4U, 0x3df78b6abe73cdd0U, 0x3e58b9f9bede5c39U, 0x3ec0f9ec3e07b31dU,
  0x3da8d48cbcf9ab24U, 0xbe8e2d0a3e231c0bU, 0x3ebe64ddbd8b0999U, 0xbdf5cf4e3e13ec17U,
  0x3e7b190cbd53ea29U, 0xbcf93b273e5f03f1U, 0xbeeb44adbec41749U, 0x3e71732dbf05ccf4U,
  0xbde4ff6a3c155006U, 0xbed442d8be757324U, 0xbf193436be78728aU, 0xbf2abd25bf27297eU,
  0xbf0a45b6bf564f8eU, 0xbf5d691bbf1aaa38U, 0xbeed347dbef0bff1U, 0x3eb3fedcbf0e432eU,
  0xbd4e86463dadbe6eU, 0xbec5a1debe757324U, 0xbeed465bbdc06bebU, 0xbf214dc7bf3c5990U,
  0xbf07bcd1be25606dU, 0xbed9a194bf27c916U, 0x3dfb2000bee34a4eU, 0x3ec17a03be826611U,
  0xbdd5a5293e20cbf7U, 0xbeda4c86be8b6d50U, 0x3f2ed15abe122254U, 0x3d9fe93d3ea9796cU,
  0x3e0455dd3e00be32U, 0x3cbcbb3dbe8a52f3U, 0xbeacdd00beca79a7U, 0x3e86ce7abf10ae1aU,
  0x3d9db658bd6b0eb7U, 0xbe8c7c31be4c563eU, 0x3e693ec1bc5ecf98U, 0xbe577743bc429cbdU,
  0xbe9db0edbeb715aeU, 0xbef2fc7fbefa7eb8U, 0x3ebdd1e8beef5b7fU, 0x3ee2327b3ee975bbU,
  0x3e3714c4bd986ce6U, 0xbe502f423e14fa1bU, 0x3ec9b785bdb98003U, 0xbdd687f63e96a406U,
  0x3ebe5c293e8ec133U, 0x3e7a53883e822ba7U, 0x3e9e0a58becb4ce2U, 0x3eaf273d3ec5cca0U,
  0x3e0857c63d38e1f6U, 0xbe8461313e14fa1bU, 0x3eaeabb3be377754U, 0xbdffc6063e96a406U,
  0x3eab5d04be9dbcbdU, 0xbe128eee3e9f1dd0U, 0x3cd7f56bbeaee565U, 0x3e6deccd3e067da7U,
  0xbe877f113e569493U, 0xbf0843f1beea8024U, 0x3e00d1f03cbe3235U, 0xbe8b6f42bdcf4808U,
  0xbb2f7ab5bf7e7967U, 0xbf3fcbac3e30b75cU, 0x3e12c080bec51caeU, 0x3e9b8f1f3d124d35U,
  0xbea108183dc73270U, 0xbf1053b9beb153f4U, 0xbd29bdb6be5c9d33U, 0xbeb22349be44769fU,
  0x3dc71bd7bf4262a1U, 0xbf0d41783d9e5d7aU, 0x3e1d6ee9bed84910U, 0x3eb52f83bdd42238U,
  0xbe9aff6c3dc83adbU, 0xbf0e5358be7e7177U, 0x3e810a49bcf488c7U, 0xbe4803503d36bb23U,
  0x3e239a8bbec93490U, 0xbe941416be0ff124U, 0xbd83deabbede4f05U, 0x3eaf7ed2bdd42238U,
  0xbe08cec63d4b797bU, 0xbedf96febe7e7177U, 0xbc5e884cbdf56ffdU, 0xbeb3d925be3451ffU,
  0xbd6f84e3beaca10fU, 0xbeb771ebbe0ff124U, 0x3f0cfda6beea62dbU, 0x3ee9871a3f560a7cU,
  0x3db88b103e0c65b7U, 0xbe974d8abe083e61U, 0x3dc947a4bd6ba98aU, 0xbe93eb9cbea4d266U,
  0x3ecd1a8b3dba67ddU, 0x3e124b043f0bb019U, 0x3f0ea16dbee5453fU, 0x3ee380a03f560a7cU,
  0x3d4b2ae93dbc92b6U, 0xbea3c3a4be5f9bcaU, 0x3da1fc66bdf34d56U, 0xbe96e631bea4d266U,
  0x3ec9acce3bbd7775U, 0x3dafe5a63f0bb019U, 0x3ee7e7e9beedec7dU, 0x3ee676fb3e19d508U,
  0x3e4f160e3d606d61U, 0xbe5af193bda9b483U, 0x3ec1cad8bdc00dabU, 0xbde96b553e507571U,
  0x3ed452963e89c7fbU, 0x3e8621b33da0b081U, 0xbee9d4c8bef55988U, 0x3eba659fbeecc6a5U,
  0xbebcec66be45f1f6U, 0xbf002075bed0ce14U, 0xbe967a1dbe906f9fU, 0xbef2ca3fbf00d280U,
  0xbf048e23bdacbfa0U, 0xbebe18dcbf0af839U, 0xbece42f4beec40c1U, 0x3eb09d90be904cdeU,
  0xbe98a40abe4d658cU, 0xbee89859bf05a196U, 0xbe3a40dbbebb8c5bU, 0xbebe5198bf00d280U,
  0xbf0ba62fbd8aef1eU, 0xbebd0863bee6f6cfU, 0xbf0b71acbef41a0dU, 0x3eb531bcbe904cdeU,
  0xbe997bd9be66ff54U, 0xbee21dc1bef7fd9fU, 0xbf015292bef307e7U, 0xbef5656bbf1dbecbU,
  0xbf2d22dfbcf45ca1U, 0xbec3a9e9bee6f6cfU, 0xbd550851bec74726U, 0x3e92018ebde50eadU,
  0xbe7de766bc872a8dU, 0xbefec9f6be8cb637U, 0x3e8011ecbe2e0a83U, 0xbe3a60443e169cdcU,
  0xbe1493c3befd5759U, 0xbefe4940bebc58f4U, 0xbd2d4808bed62684U, 0x3ea6151cbde50eadU,
  0xbe4f45453d053d14U, 0xbef55ffabe45e9baU, 0xbe7dd9a5be930360U, 0xbee41036befef43cU,
  0xbe2b78f6beefa4cbU, 0xbefa67a3be8e75a4U, 0xbea44418bed706f1U, 0x3e983fb33d1bf8e6U,
  0xbe564b47bd19c144U, 0xbeeed145be897ff5U, 0x3d48b56dbc32a189U, 0xbea41813bdb9c1ddU,
  0xbecb9574bebe43a4U, 0xbf0436bcbe87c778U, 0xbe7ac57fbec378deU, 0x3e8234c43d1bf8e6U,
  0xbe1e2c783d117c51U, 0xbee56a34be9ffbc3U, 0xbe40056e3bfaa757U, 0xbeee7c71bed9f5a1U,
  0xbeb88f80bf3a0bc3U, 0xbf3b3aedbe454c79U, 0xbe59639abeda21afU, 0x3ea1d463be90e799U,
  0xbeaef165bd4ca947U, 0xbf0c45f4beeb2497U, 0xbe0c1353bdf4b37dU, 0xbeda6d93be63677eU,
  0xbea18fc7bee97164U, 0xbf0a63dbbecebdebU, 0x3cb9083abef02c15U, 0x3ecc106ebe097f19U,
  0x3d87fe56bbab3039U, 0xbe967cfbbdf95c81U, 0x3e0c9d4fbded30c7U, 0xbe84dadbbd31cc34U,
  0xbcbf2b8b3e0a311eU, 0xbd2cf601beab3dc6U, 0xbd3c06d1bed8ef68U, 0x3ea985bfbe146040U,
  0xbe8ae8fa3da6e1f1U, 0xbf0875c7becee0b9U, 0x3e9bc8dd3d763181U, 0xbe23f5253dcc5df5U,
  0xbdd7c7d1be8c665cU, 0xbead8150be9beda8U, 0xbe9527cdbec52c85U, 0x3e821291be96f2e8U,
  0xbe78ca43bd1fcdffU, 0xbef9c6aebea1e91dU, 0x3dde36a2bdf887b2U, 0xbe8d816e3c80b269U,
  0xbeaf6f09bf1e3775U, 0xbf27a625be97ad56U, 0xbdd212c6becbb137U, 0x3e94d73dbe96f2e8U,
  0xbd6e76473d81a004U, 0xbec6f349bdac4651U, 0x3d6fbcaebe086a1dU, 0xbe9c3f0cbdb9c1ddU,
  0xbe0a9a4ebefdff43U, 0xbefc9020beaeb0fcU, 0xbe7c267fbed95905U, 0x3e9f08d5bea57470U,
  0xbd2fa66e3dcaf5acU, 0xbec3c352be7804f3U, 0x3ea5f9d5be6a87dfU, 0xbdfea84dbd8eb586U,
  0xbe5adbfabe2eb94dU, 0xbea2c995beb3acd6U, 0x3e9ac81abf14016eU, 0x3f1362933f38ba0dU,
  0xbd970340bd604937U, 0xbebf2475bdd7f506U, 0x3eb7b671be270bc1U, 0xbdef9fc33eb237eeU,
  0x3e7285263f7a9aa8U, 0x3f1d6fec3f31af85U, 0x3fc3b924be197fe9U, 0x3e8c15383fb20a15U,
  0x3e267fe7bedf076fU, 0xbd49c2413efbc9aeU, 0x3fa0f52f3f7b4562U, 0x3f49d7a13feb94bcU,
  0x3fa04b49be9f70d6U, 0x3eee88943fbde0aaU, 0x3fae60edbe52fd25U, 0x3e99b8f93fb20a15U,
  0x3e58df19bec65504U, 0xbd48d9cc3f501ea3U, 0x3fa8b72b3f6d6d91U, 0x3f48d9f63fab835fU,
  0x3f87560f3d8b9f57U, 0x3f0c3d2a3fbde0aaU, 0x40039adbbecf8f57U, 0x3f3305f04045bd33U,
  0x3eebae923c9d496dU, 0xbd1766ce3e02fd77U, 0x3eee82d73ebe51a4U, 0x3c7633fa3eaedaf7U,
  0x3fb50e783f61b9e5U, 0x3fa665e94009bac2U, 0x3fe345c6befa5f60U, 0x3f3b03d14026893cU,
  0x3eab0a1fbd0f4750U, 0xbde344f23e02fd77U, 0x3efcead43dbda93eU, 0xbd2589273f226cfbU,
  0x3fb291bc3f767683U, 0x3faaae264012c99fU, 0x3fc46bdebee5849eU, 0x3f20d6464026893cU,
  0xbe2866ec3dc4e8f1U, 0xbeed40323c4ca612U, 0x3eaa81ef3dbcb431U, 0xbe0e76b73f226cfbU,
  0x3f8f48d03ea5f154U, 0x3f3f27164012c99fU, 0x3f76d1cfbe8c6031U, 0x3e989c9c3f495925U,
  0x3ed2e4e63bbe066bU, 0xbd8963fd3efdb709U, 0x3d56761a3f020b0eU, 0xbe18c450be6b79ceU,
  0x3f3b70c3bf47c98bU, 0xbe44e5483f300602U, 0x3f2cce33bdd3a88eU, 0x3cfde3883f495925U,
  0x3eace136be9a0763U, 0xbc8f96b43ea1da77U, 0x3d8164853e8a2fc5U, 0xbe84e0d0bec5c7d8U,
  0x3f031fe3c004dbcaU, 0xbf909bef3f300602U, 0x3f67f26cbd36389dU, 0x3bbd74a73f06dcc8U,
  0x3eb07722bec8c44aU, 0x3d04da953f2cc9ceU, 0x3f5c1fcb3f92bc6cU, 0x3f3741113f29d319U,
  0x3f151ec2bf74d7a3U, 0xbecbb0a73f39ebb6U, 0x3e77c4c5bf04e00fU, 0x3efb641d3e960ceaU,
  0x3eae6d3cbe8013e5U, 0xbd1be2593f5ee506U, 0x3f9bb3ab3f068b44U, 0x3f038dbc3f975597U,
  0x3efc741c3fa4867cU, 0x3f70d55b3f1850eaU, 0x40067601becc7499U, 0x3f3417c7403d6da8U,
  0x3e012ba1bd8b70caU, 0xbe7523e83f1460a5U, 0x3f2d0e4b3e7a1f7aU, 0x3dc9a74c3f486ddfU,
  0x3fd475733ef0b758U, 0x3fa0672b40204bc6U, 0x3f7b14bfbeb9824dU, 0x3ed207793ec8d248U,
  0x3e90df89bdc9c849U, 0xbe03c38c3e52a575U, 0x3f17a8ed3eff3eb7U, 0x3e13714a3f2ddc42U,
  0x3f37b1093dcef73bU, 0x3ead22fa3ed22ab0U, 0x3eec1590bdbba5daU, 0xbcbc5f0b3ec8d248U,
  0xbe193b15bea96e0bU, 0xbe95add1be927e47U, 0x3ea880a43e99fb1dU, 0xbdbbf5503ef376a1U,
  0x3e83621cc00f6f68U, 0xbfb2296a3ed22ab0U, 0x3e12ba95becb37c2U, 0x3ea37ea73e1634a6U,
  0xbd7c0cbd3d4b53b5U, 0xbec70f2dbe8a2468U, 0x3c964582be08c85dU, 0xbea8c7883d46dfc4U,
  0x3dff1775bf0cc1f2U, 0xbecfd3c83e9b790aU, 0x3db34663bed7a015U, 0x3eb00247bd755c31U,
  0xbda64bfa3c9098deU, 0xbecad229be93c72eU, 0x3f06d914bdab1164U, 0xbcc26af43f2216e2U,
  0x3e0421dabe130cefU, 0xbe16d1cd3d8e01fdU, 0x3f44fc36bee093e5U, 0x3eef580c3f896474U,
  0x3df185c3bcdbdccdU, 0xbe82a9aebecc4eebU, 0x3f31abc4be032fc2U, 0x3daa4d6f3eef6d79U,
  0x3f20273a3ea7ddc8U, 0x3ed78e9f3f49b620U, 0x3f611b29bede98f3U, 0x3ef6aef63f896474U,
  0x3e0078003da4f6e1U, 0xbe8939c6be913560U, 0x3efa7d61be165e35U, 0xbd2359883ea57044U,
  0x3f3ac0fd3e2a5de7U, 0x3ec597223f49b620U, 0x3f3622e5bed4d1e9U, 0x3edb71cf3f42b31bU,
  0x3d8113db3d6e0096U, 0xbe9d37e8be166050U, 0x3f0813cbbe577f1eU, 0xbb43caa23ea57044U,
  0x3f1d7c2bbc4bf5a0U, 0x3e512a1d3f0ec8b9U, 0x3efd083ebed1cc4bU, 0x3ec59b3d3f42b31bU,
  0x3d620e153d30c465U, 0xbe9ecbf4be01d1ddU, 0x3e829948be1428b4U, 0xbe3bba4bbd679ba0U,
  0x3ea20c0ebe17f145U, 0xbd59aa9a3f0ec8b9U, 0x3ea2ba77bed29799U, 0x3eb93a863f0206f0U,
  0xbe2373833e470cddU, 0xbeecf4d9be285cf5U, 0x3e94a54abe073316U, 0xbe2793a7bd2c6aa9U,
  0x3e3b72bdbe8c0f04U, 0xbe4ef4fe3e9f7c28U, 0x3e4ff295bec07dcfU, 0x3e99a6a73f0206f0U,
  0xbe00c0a13e4e513bU, 0xbee12581be81ca8aU, 0xbddc8759be7a9e9eU, 0xbec1de38be8f4c3aU,
  0x3d0ac911bf2a6494U, 0xbf0613493e9f7c28U, 0x3e92969ebec84f2fU, 0x3ea9ab613f155e51U,
  0x3d8ab6bf3e0c52d4U, 0xbe9efc3bbe7bdfa8U, 0x3e0bd43cbdaead0cU, 0xbe86d26cbe78eda9U,
  0x3e06cd63bebc5ee0U, 0xbe9340223eb3a079U, 0x3ecfe551bedd713bU, 0x3ecdbc303ee7a58aU,
  0x3e067d2f3d69220bU, 0xbe85d1dabe69e304U, 0x3ea503f2bdfe9167U, 0xbe1497e83e736f77U,
  0x3e8d21353d5199acU, 0x3d4d98d33e63a399U, 0x3f115485bed3b4c1U, 0x3ecdf2c13ee7a58aU,
  0x3e71e9513dd9dcd8U, 0xbe48bc27be88370eU, 0x3f245b12bd89c925U, 0x3d3cdc2e3f16fdb3U,
  0x3f018e7d3dc3e862U, 0x3e52de7a3e63a399U, 0x3ec8cd0cbedca5edU, 0x3ecbac7f3ddf0bc8U,
  0x3d70cbfb3ce88a25U, 0xbe9c59b9bde23c3fU, 0x3efbc1f4bdfb53ffU, 0xbd29faf83ed485c3U,
  0x3ebda06b3c0e0e06U, 0x3d98d8ac3e86a6d3U, 0x3e92f35ebecefb7bU, 0x3eb256d9bc026c26U,
  0x3e5e72ac3d795d2eU, 0xbe517555bcb97742U, 0x3e762c64bd03d6e7U, 0xbe4f4b3a3dbc3955U,
  0x3e9d3981be8b1872U, 0xbe0ab9d43d644b25U, 0x3ec96612bedaa857U, 0x3ec933373e67328bU,
  0x3d8832a73dfb0ffbU, 0xbe9f16f73c23892cU, 0x3ed3f107bd4b437fU, 0xbdc2ae5e3e169cdcU,
  0x3eca17bfbdc5fac5U, 0x3cb7454e3e05b079U, 0x3e730fd5bee5624bU, 0x3ecbd9b63e67328bU,
  0xbdcce84a3bb5c314U, 0xbecfe47bbce29428U, 0x3ed34984bda3eceeU, 0xbdc0bd113d912cfeU,
  0x3e61dbe53bb10ad5U, 0xbbecd9443e05b079U, 0xbec9b4edbee7cec5U, 0x3eab1ac5be9e33acU,
  0xbde558b8be503340U, 0xbeae13f8be7a96c1U, 0x3e3345eabd98bbb7U, 0xbe76541dbdb71118U,
  0xbec6e7fbbc37ac18U, 0xbe8ff462beac05e2U, 0xbf078780bee62d99U, 0x3ea336cbbe9e33acU,
  0xbe13a40cbe597f03U, 0xbeb5e2cfbe592f46U, 0x3e496b94be08446aU, 0xbe620f5bbd5cd88aU,
  0xbf0541f9bcb4b83bU, 0xbea9eaeebeac05e2U, 0xbf510dcdbee49ee8U, 0x3e97615dbf30b6d2U,
  0xbe8fc560bd94bc8cU, 0xbf003f2ebe9eb2dcU, 0xbebb2175bec6430bU, 0xbeeccfebbee564e8U,
  0xbf526a1abea51ff4U, 0xbf1bd95abf56a550U, 0xbf516ec2bed9ad82U, 0x3e88a5bdbf54ad4aU,
  0xbe5013c1bda6aa15U, 0xbee57e37be675135U, 0xbf5cc208bed50feaU, 0xbf3264edbf77346fU,
  0xbf577f1bbf14fb12U, 0xbf484351bf64c055U, 0xbe434198bec666b9U, 0x3e88f548be66939bU,
  0xbdb655f83d157836U, 0xbecf4b3cbe5bc114U, 0xbe1c8763bdf969e5U, 0xbedf43c5be7233bbU,
  0xbe52da5fbf318570U, 0xbf262d0ebe926e8bU, 0x3e9060c8bec0b7e5U, 0x3e9f8e9b3e90019bU,
  0xbddda59d3e759a8cU, 0xbed98de6bf02bd8dU, 0xbc9e4308be09300aU, 0xbeb483dcbe5b552dU,
  0x3e3f5108bf30e28aU, 0xbeececb23e68580fU, 0x3eaf3db8beda4beeU, 0x3ec4f3673e90019bU,
  0xbe1ad53bbad4943bU, 0xbee04b5abd2ef56dU, 0x3e05feb1be41006aU, 0xbe805a9e3e06783cU,
  0x3e817a7cbe86a6d6U, 0xbe22f0103e94d9cbU, 0x3ec84ac7becfaf06U, 0x3ebaece83e9877d6U,
  0x3e705ed43d724807U, 0xbe4548e93edcf402U, 0x3eb327b5bcd5e722U, 0xbe0a5d4e3e06783cU,
  0x3eb753e8be1aa02dU, 0xbd03100d3e4280e6U, 0x3ec2156fbec98c06U, 0x3eb21ee23e9877d6U,
  0x3e4d80963daa59a1U, 0xbe5f35ca3ec8658eU, 0x3ead361bbdfb66d9U, 0xbe0ac1103e2c2308U,
  0x3eaf2491be82eb62U, 0xbdd9b1893e21fccbU, 0x3e89dc93bec5ffc0U, 0x3ea57534bc3c7248U,
  0x3d8694d93cf0cd7cU, 0xbe9a157c3e21d323U, 0x3ed00185bd3971c6U, 0xbdccb4c53ebe5366U,
  0x3e9a783bbecb4785U, 0xbe5e198d3e2af825U, 0x3e861570bec65985U, 0x3ea561eabc3c7248U,
  0x3d896cafbcd1d42cU, 0xbe93ecff3e21d323U, 0x3f073f19bc3d3bf3U, 0xbccfb9ea3f23c55dU,
  0x3ea884bebeac6ea8U, 0xbe2813913e27ba48U, 0x3e97da13bee5624bU, 0x3ecffb993e67328bU,
  0x3e24f5c83c25d6b5U, 0xbe6fe93a3d6707f3U, 0x3ec2cb98bd9d4c6cU, 0xbde9c5353e1aa604U,
  0x3e8af4523e06b366U, 0x3dc9a9733e99d787U, 0xbede268ebef6db05U, 0x3ebd5de2bf08853dU,
  0xbeb86315be76bfb2U, 0xbeef9dd6bf02191aU, 0x3e3b6f98be097204U, 0xbe6a6f2e3e318492U,
  0xbee5058f3e002e26U, 0xbe5a53acbf16cd1aU, 0x3ebd8e7bbecdf616U, 0x3eb721cc3d80c1d1U,
  0x3e0be8f53dcae2c9U, 0xbe864029bddfaa71U, 0x3ef770d2be03ff1cU, 0xbd3c16f83e9b595fU,
  0x3e922b07bdd8d34aU, 0xbd30df0cbddcb1abU, 0x3ec5a759bed5759dU, 0x3ec1f6d83de64c8dU,
  0x3dc47e9f3dc3bac0U, 0xbe940c143de9b70fU, 0x3f343ae7bdb5d181U, 0x3daf58c83eff9219U,
  0x3ed018003c923a3cU, 0x3dcdb1a23de4ebbaU, 0x3ec86574bed7708fU, 0x3ec4e9e53de64c8dU,
  0x3c97c31ab9977f78U, 0xbea7339c3de9b70fU, 0x3f3c617bbe2842c8U, 0x3de85d773f2bd7aeU,
  0x3eda3d123cfa1bbbU, 0x3df4c0a93deaef14U, 0x3f0b979fbee24cd5U, 0x3edec2713ed1e33dU,
  0x3c24d6ce3d6b58a7U, 0xbeaf3eddbed35fe2U, 0x3edd277bbd901e41U, 0xbda9d3623eddf076U,
  0x3ee78dc73d9128b4U, 0x3e2343733e6785b1U, 0x3ea404d8bedd3725U, 0x3ec71fe1bc3c7248U,
  0x3d31eeb13d54c53dU, 0xbea376ffbdc88a2fU, 0x3ed31dc2bd88ae65U, 0xbdc2f90f3eca6edeU,
  0x3ea1903bbd688772U, 0x3b7567d03e1dd0d0U, 0x3e22a157bee98fa1U, 0x3ecc00f2bc3c7248U,
  0x3cd5e5e0bbb6fe23U, 0xbea40f7abdc88a2fU, 0x3e9f9705bde61f2bU, 0xbe1cba993e8fea18U,
  0x3e2702f33d87e4b6U, 0x3b0e3bed3e29cd60U, 0x3e637fa3bedda0c2U, 0x3ec0bedcbd0fd176U,
  0x3d3df0f63d5479b1U, 0xbea275babe37c7cbU, 0x3e9025c8bdc1f7c5U, 0xbe31959c3dc6fc6aU,
  0x3e2ad860bd96e470U, 0xbdacb6d2bdd39859U, 0x3e8f405abee42817U, 0x3ecd357bbd0fd176U,
  0x3dbb34df3ce20c17U, 0xbe913151be01d1ddU, 0x3eaddf6ebdb2f25aU, 0xbe0dc11c3e2819dfU,
  0x3e7f7eb53d5dca0cU, 0x3d1d4376bd9d414cU, 0x3ef1e8adbee405c4U, 0x3edb3fc23ea188cbU,
  0xbe3629043bef9a78U, 0xbeea586ebe6c74d2U, 0x3ec6aa5abd38daf9U, 0xbde3b6a43e9b595fU,
  0x3edb6028bd7ce671U, 0x3d8180123e609884U, 0x3e9f7c55bee7c6d9U, 0x3ed422fc3ea188cbU,
  0xbe8f642e3d35319dU, 0xbf086c0bbebf75e3U, 0x3e912099bd6aed0aU, 0xbe33348e3db1763fU,
  0x3e7a4fdcbdba56bcU, 0xbd6352da3e609884U, 0x3d91c92cbedb80d9U, 0x3eb407d43ba4aa04U,
  0x3d7857623d73c1c5U, 0xbe9e21a8bddd18a2U, 0x3e6a4cabbc51432dU, 0xbe56d0e9be0694e3U,
  0xbbd63a66bdd59770U, 0xbe3f3fc0be5abd9dU, 0xbdc4dbcabee5bc10U, 0x3eb771053ba4aa04U,
  0x3da1c44fbe130081U, 0xbe7b73b5bddd18a2U, 0x3e8a4a69bb95e932U, 0xbe3cbab53e51cdd4U,
  0xbe1ab40e3ddcbe00U, 0xbdea33e3be5abd9dU, 0xbec80a2dbed8b00aU, 0x3e972af1be4d30ecU,
  0xbe60f08b3cec6044U, 0xbefad6e0beba5246U, 0xbddec932bc0d8516U, 0xbed5d500be45cf02U,
  0xbed2ab56bef0032bU, 0xbf157af8be7d0656U, 0xbee972fabec3172cU, 0x3e6f19afbe4d30ecU,
  0xbea949f93e12561eU, 0xbf13efa1bf15b0dfU, 0xbe903a19be755169U, 0xbef7820fbf38a681U,
  0xbf1075b1bf569e60U, 0xbf5f946bbe7d0656U, 0xbef8e736bed4f43cU, 0x3e8e064fbe90e799U,
  0xbe97b38ebd6db6a5U, 0xbf041b0dbeb29cdbU, 0xbf2cff4abec93e79U, 0xbf1f7c10bf75dc0cU,
  0xbf151983bf235422U, 0xbf3fd910bebb2d28U, 0xbed109d4bebb8d16U, 0x3e5f5ba5be6a33fdU,
  0xbe5b9e4abe097c15U, 0xbede9349bed927f3U, 0xbf0202d3be933280U, 0xbf182ff8bf0d9a2aU,
  0xbf06210fbf6a0160U, 0xbf68c83bbea6951cU, 0x3ea90590bedd3c6dU, 0x3ec7dbbb3dd7cb04U,
  0xbd90d4ae3da2e60bU, 0xbecc454bbea70cbaU, 0x3ec39d84bdc54807U, 0xbde475fb3e22b855U,
  0x3e8ec697bdc776a4U, 0xbd29886f3d8af145U, 0x3ea49097bed6e742U, 0x3ebf0d8d3eca07beU,
  0xbbb0c7d03d94bbbeU, 0xbeb586e6be5179dbU, 0x3ebeae5cbd79815cU, 0xbdf5ed363ef77fc9U,
  0x3eb31cffbe6880fdU, 0xbdac3adf3f0a8f03U, 0x3eae3460beded066U, 0x3ecaa16a3ead04acU,
  0x3e5cc28d3d774c58U, 0xbe528606bdb3fbbcU, 0x3ee0a2253c4d7094U, 0xbda41c7b3efb88f1U,
  0x3ed4f36a3be15082U, 0x3dca971e3f09a56cU, 0x3df84f11bedca349U, 0x3eb8b7acbdfd3be6U,
  0xbe73813c3c8ab1e9U, 0xbeffa7c9be18f21fU, 0x3f3b24673d3c9cbaU, 0x3dcf488d3ee75b29U,
  0x3dd42d8a3cc90b6bU, 0xbd5aa9a2be4cd4f8U, 0x3f1520d9bedd8e47U, 0x3edbb58a3f0fedbdU,
  0xbd95d8323c6466ddU, 0xbec7b7c53d6707f3U, 0x3f525879bd53119bU, 0x3e1fb2243f23192cU,
  0x3f14c1873e028152U, 0x3e8a47573eb29404U, 0x3f18188abed95905U, 0x3ed74c063f0fedbdU,
  0xbe99f7fabc8df427U, 0xbf0822e2be37c7cbU, 0x3f4a50d6bc32a189U, 0x3e0b3b863f23192cU,
  0x3f15654dbd44422aU, 0x3e26f53b3eb29404U, 0x3ea0427dbed7e4bbU, 0x3ebfb8d43ddca0dcU,
  0x3d18a278bc6760c7U, 0xbe9f54f83ebec2c9U, 0x3f233856bd8583d7U, 0x3d313a3a3f67b4d6U,
  0x3edf5ce2bdc78b3eU, 0x3d3a192d3ef1a65dU, 0x3e55285bbeea18edU, 0x3ecffb813ddca0dcU,
  0x3e082d57bcb955b2U, 0xbe7c26e03ebec2c9U, 0x3f06c134bd989604U, 0xbcc95f9c3f26200aU,
  0x3ea2a4c43e2c90e2U, 0x3e15a5f23ecd173cU, 0x3dbacb7abee0c0c8U, 0x3ebc27283e298c06U,
  0xbea2d5293e46a4fcU, 0xbf11ab10bf02191aU, 0x3eb4b18dbd1dc223U, 0xbe0832efbbadfbc9U,
  0x3d264ae2be3463a1U, 0xbe5794d7bd09f2c2U, 0xbe08bc99bec158f5U, 0x3e857a513e298c06U,
  0xbea126e23e04b007U, 0xbf110d8bbef2358fU, 0x3c35ffa9bdf0b995U, 0xbeac4931be8c9b75U,
  0xbe751312bf4022adU, 0xbf330a78bd09f2c2U, 0xbed8cd8cbecba15fU, 0x3e8457e5bedf7a92U,
  0xbe2a12ba3c3cdb72U, 0xbee6d9adbeda70daU, 0xbe9055df3c312a24U, 0xbf0615e7bf3db1f3U,
  0xbee13ebbbf33c871U, 0xbf3e88b1bee8e569U, 0xbead74cdbeb8f901U, 0x3e5f2215bedf7a92U,
  0xbce3ab04bd6f5629U, 0xbeaf4d57bef94687U, 0xbe60738fbd6e2a71U, 0xbef7dc49bf124f84U,
  0xbec2b9bbbf5795c2U, 0xbf501854bee8e569U, 0xbe6497f1beb44503U, 0x3e5e9846bea26ec9U,
  0xbea41f0fbdbf3b72U, 0xbf04ad81bf0d04c7U, 0xbad969a8be250ecdU, 0xbeac755e3cf71457U,
  0xbe9f1250bf6936d3U, 0xbf54a347bec5c627U, 0x3e0b1900beb6f623U, 0x3e88aba3bde9e485U,
  0xbec1cc123e02eabdU, 0xbf1bf6b0bf002bbfU, 0x3ee5bf6d3cafc396U, 0xbd96e6843e22b855U,
  0x3dca0016bf3e9faaU, 0xbf0ab396bdad8fceU, 0x3e515598bed80c56U, 0x3eb84a87be05deb7U,
  0xbdc7272c3da4143cU, 0xbed55f23be757324U, 0x3edf5950bd9a21deU, 0xbda3c6143ebda735U,
  0x3e3d7657be2f498aU, 0xbe0be4d7bdeb5b93U, 0x3edfe3fbbee5033dU, 0x3ed9d3b93e734927U,
  0xbdd6a3083dbf606bU, 0xbed8b21dbed2bb6fU, 0x3f12a615bd4ff9e7U, 0x3b3643243ebfabc9U,
  0x3ead0f223e0fe1f9U, 0x3e0ed8de3deb673cU, 0x3e33bfd5bed7ad49U, 0x3eb5d9d4bdddcde8U,
  0x3e45db383d52fff3U, 0xbe60aa82bda490e6U, 0x3ec4ea82bde2e1c4U, 0xbdde44353e0116b1U,
  0x3e31d6d3bd4cc883U, 0xbd8718c7be6f365fU, 0x3d3fdab8beedbf9bU, 0x3eca5d5cbd9a1c16U,
  0xbdf4a0c93b418a90U, 0xbed623b3be3a599aU, 0x3eb13da9bd921b35U, 0xbe0adb103e949f72U,
  0x3daee6ac3d40bffaU, 0xbd4407e93da7a9feU, 0x3d549767bf05c1cfU, 0x3ef1a5f43dd2f52cU,
  0xbe0065bc3cf1fbadU, 0xbedafa9bbebce415U, 0x3f0d6a973db7c53cU, 0xbba0a4353eb8f1dbU,
  0xbcaf03c83f29696bU, 0x3e969964be387c6fU, 0x3f970de9becc6cadU, 0x3efd4bd83f841a8fU,
  0x3e9f5086bdcc5d54U, 0xbde12d993ebae813U, 0x3c1e21413edfd725U, 0xbe5a8c853e8f3de7U,
  0x3f90c956be6cbf65U, 0x3ed7f3303f6fe936U, 0x3f910c6abe97e816U, 0x3eb8292f3f841a8fU,
  0x3eb679e8bed91bc1U, 0x3d68ec563ebae813U, 0x3e2648d23eb1ac22U, 0xbe2f5aff3e8f3de7U,
  0x3f8b8713bf3c530fU, 0x3db70ef93f6fe936U, 0x3e8080fabea042c2U, 0x3e66d9cc3ea05355U,
  0xbe725a42beb201a8U, 0xbea959c3bec1633eU, 0xbd95b8f83ec5fa0dU, 0xbe92a20f3e1d56caU,
  0x3e1a11f1bf80d884U, 0xbf2e1fdc3e8807b6U, 0x3ee22269bf09edd3U, 0x3f0b3ade3f824a5eU,
  0xbe66e293bead0210U, 0xbea96a1dbdd56337U, 0xbdadaddabe7131ceU, 0xbebc6601bea6d6faU,
  0x3ec278843f02ff1cU, 0x3eca160c3f644f5aU, 0xbe672c43bedc63ebU, 0x3ea41c303e2115ccU,
  0xbececd5fbde0230aU, 0xbf104810bee0dd5eU, 0xbe8d6891bc6bc536U, 0xbf054f6cbf27d5afU,
  0xbed08574bee9a161U, 0xbf130c07be124364U, 0xbd556127bee8136bU, 0x3ebd08873e91d1ccU,
  0xbee2a3ef3e144aa0U, 0xbf272ee6bf07e12aU, 0xbec44d5f3c98ca5bU, 0xbf15f9f4bf344740U,
  0xbe83ccc2bebdeb5bU, 0xbeed5d673e2955e5U, 0x3e838a12beb3cb8eU, 0x3e8d0ea63ece42dbU,
  0xbf18f56b3e4d6e96U, 0xbf417d03bf3dd718U, 0xbf0e02b23e7683d3U, 0xbf2159d8bf416503U,
  0x3e0451b9bfa2247dU, 0xbf5ad29e3e92172cU, 0x3ff2c09dbee53ff8U, 0x3f35b6d03fd212cdU,
  0x3e675fcebd8c07e3U, 0xbe324b283e83a93eU, 0x3dc5abd63f0a1b24U, 0xbdd99dfb3e96a406U,
  0x3fd1f0ef3ec7fd92U, 0x3f985ec83fb5a091U, 0x3fd24b78be9d0d9dU, 0x3ef7f3cc3fd32195U,
  0x3e86ba29be60ccd2U, 0xbdcba2973e83a93eU, 0x3e86d3dd3edfe9ffU, 0xbd9344d23ea2134dU,
  0x3fb2df22befeb416U, 0x3ef1435c3fb5a091U, 0xbf2f3245bed27fd6U, 0x3e833505bf34a492U,
  0xbe873059be53980dU, 0xbedc7e07bed0ce14U, 0xbe69c0f3be13e6bbU, 0xbef4abafbdffb5eaU,
  0xbf2a212bbf0ebf50U, 0xbf38ad6fbf1acfb2U, 0xbf49f571bf004e64U, 0x3ebdbee6bf47ae95U,
  0xbeb55178bc505c0aU, 0xbf115f16bf108d43U, 0xbefaf697be5618f8U, 0xbf1dfe44bf37fa50U,
  0xbf602d19bd25a81bU, 0xbedfadf0bf627faeU, 0x3f0395f9bec03bcdU, 0x3eb0c2e13f0dd02fU,
  0xbdd753c43d802647U, 0xbed6e741be17a937U, 0x3e97b7ef3bec841fU, 0xbe2bfa793dbeea1aU,
  0x3ecda665bf06e9e5U, 0xbe77b9ab3ef90004U, 0x3dffe042beccf356U, 0x3ea487cd3d77d7f1U,
  0xbdf80b7f3e02ce69U, 0xbedf9c72bf03b43bU, 0x3ec79bfebd11aeb8U, 0xbde1fa5a3ee14d6cU,
  0x3da5590ebeb1441eU, 0xbe99176fbcb5fc2cU, 0x3dded2c2bee0cb57U, 0x3ebd54e8be07142dU,
  0xbe41a6153e03d6d4U, 0xbef6f8acbf0fe8cfU, 0x3eb2b531bd3b8193U, 0xbe0a669c3ee14d6cU,
  0x3dc1c4f1be16a246U, 0xbe2a51fbbcb5fc2cU, 0x3e212365bec81d04U, 0x3ea0679abd81eeddU,
  0xbe83a0013df57492U, 0xbf070179befbd855U, 0x3e2089c33c71f63aU, 0xbe81daef3e113b51U,
  0x3de2dccabf1cc69bU, 0xbee7949ebe1a2113U, 0x3e99edfebed4bf6eU, 0x3ebac4803e224b42U,
  0xbe00b7cfbd87e637U, 0xbece90d63d82eed0U, 0x3f223b04bd83e523U, 0x3d2751b13f8a8dedU,
  0x3ed9ea89be5fde8bU, 0xbd140b073f042c4dU, 0x3e9a5dd8becfc426U, 0x3eb465623e5ebc50U,
  0x3e271023bdd7f296U, 0xbe514c633e0ab2e2U, 0x3f13a77abd992cd1U, 0x3bd274e03f8a8dedU,
  0x3ee13f94be2a83c8U, 0x3b9429f83f0e828bU, 0x3ebcacabbed7bd20U, 0x3ec396b03e91d1ccU,
  0xbdea55883d669fe3U, 0xbed9983dbe2d8092U, 0x3ecb418dbd610f20U, 0xbdd797113eb99e0cU,
  0x3ebb723bbe6f52d1U, 0xbda2393e3e6ef941U, 0x3c9870dabed47824U, 0x3ea78efa3e91d1ccU,
  0xbeb2bcef3db1361eU, 0xbf15e81cbed927f3U, 0xbd79d3a5bd89dbffU, 0xbec5bae4beb4f706U,
  0xbd49f994bf0fefefU, 0xbefe95d83e6ef941U, 0xbe40eeadbec64ef5U, 0x3e88f585be1f4166U,
  0xbeb17f603e278c20U, 0xbf16c83fbf0b69a6U, 0xbd9e1c3ebe11498dU, 0xbec5e0a8beb4f706U,
  0xbe80f16fbf4297a4U, 0xbf35e9b5be79a867U, 0xbc814679bec3cfffU, 0x3e8fa7acbe1f4166U,
  0xbe6819cb3d06b6d1U, 0xbefd9f65be9f574fU, 0xbe5c428abe82eca1U, 0xbee07626be83dcf3U,
  0xbda3648ebf47339dU, 0xbf25f589be774da6U, 0x3e4be372becdfb5eU, 0x3eaadda53e7a89ebU,
  0xbe4703a43dbff783U, 0xbef75ac8bed54d3dU, 0x3e167d8f3c19034fU, 0xbe8509dc3d3c1caeU,
  0x3e1d202ebf01ad97U, 0xbeba5d563e1230ecU, 0x3d159da6bef16b90U, 0x3ece8aa93e7a89ebU,
  0xbd4ff1f33dbb3ebfU, 0xbec6190ebecf852dU, 0x3d7303fdbdb1ea73U, 0xbe9f054bbdf2420fU,
  0xbca5a7dd3d2be97dU, 0xbdccc4a63e1230ecU, 0xbe372bc1bed98dd3U, 0x3ea2d7d9be45f028U,
  0xbe833672be41aa84U, 0xbedeb614bdf6cab2U, 0x3e60e8763d0e8491U, 0xbe5b1f6abd2c6aa9U,
  0xbe127637be98f65aU, 0xbebdc946be7f43b3U, 0xbc84dcd3bec109bfU, 0x3e8bff6b3c466147U,
  0xbc8bc72b3dc0da28U, 0xbebab124bdf6cab2U, 0x3e8b0aadbe7eb4ccU, 0xbe1a8435bd2c6aa9U,
  0xbce32ac1bf02697eU, 0xbee8569dbdb225beU, 0x3e35c30abeeb9a6aU, 0x3ecfe4963e48fa04U,
  0x3c8d044b3d8900b7U, 0xbead714cbedef003U, 0x3ebc43e1bdf0cc6fU, 0xbdf1e6b83e486321U,
  0x3da010e23e42d0efU, 0x3d21870c3c1495ecU, 0x3e8b732ebeded30aU, 0x3ec5c8be3ec6675bU,
  0xbea9cd223e0e6d1cU, 0xbf141218bf1a8242U, 0x3f2f024a3bf5f0efU, 0x3d90664d3e7b81c8U,
  0x3e42b4653c323dc9U, 0xbc9dea663e97f646U, 0xbdd55863beced13cU, 0x3e98db013e95722fU,
  0xbe39cbdd3dd4b2c1U, 0xbef37068beb9add3U, 0xbe92fda7bbcfa3acU, 0xbf07047ebeeb72a4U,
  0xbe1f46debf2ca9deU, 0xbf1da0223e570cdaU, 0xbe527111bea7dcb0U, 0x3e3fd5483e95722fU,
  0xbc7116b93da6122fU, 0xbeb93612bea7b12eU, 0xbe1673a1be8d6158U, 0xbec81a1cbe8b4312U,
  0xbe89bf39bf82db8eU, 0xbf62a5153e570cdaU, 0xbf214477beb6c69dU, 0x3e4026f8bf27a5ddU,
  0x3e12ff333bab235aU, 0xbe7ae1a3bebd8888U, 0x3db550debe53c730U, 0xbe8b41a0bddcbbe4U,
  0xbf244843bf1e26e8U, 0xbf4100d9bf07e4e5U, 0x3eaccadabeebe1b4U, 0x3edb4d593e5ff1c6U,
  0x3e188c0d3cf95c60U, 0xbe7bb346bd8aded6U, 0x3eff26d7bd8596b1U, 0xbd2d9bc83eec1082U,
  0x3ea19b3c3e8c8c9cU, 0x3e58a77b38da0ae7U, 0x3e83efddbef278e1U, 0x3ede39743e5ff1c6U,
  0x3d8420f83d83d6a0U, 0xbe9d1fe8bd8aded6U, 0x3ea07995bdad2132U, 0xbe1e75b73e8d3953U,
  0x3e58007e3e6ff69dU, 0x3e0748c438da0ae7U, 0x3e7b301dbedafa31U, 0x3ebee8693e686801U,
  0xbd0177eb3dfa1a73U, 0xbec0be21bed54d3dU, 0x3ea5738fbdb9cb69U, 0xbe17cd123d2134f8U,
  0x3e3d40b2be085cdeU, 0xbde6f288bd475c1bU, 0x3e9e2dbabecc9c34U, 0x3eb0dcea3e3ce367U,
  0xbd108d583c82ba1eU, 0xbebb1ad4be4c563eU, 0x3ed6a60abcefd25fU, 0xbdbd35e93f047e66U,
  0x3e9758aabea1821bU, 0xbe2d2f9d3e882c53U, 0x3f0f38f4bedea627U, 0x3edb3c1b3eb1da85U,
  0x3e4e98673d70f410U, 0xbe5bc8fabd581253U, 0x3f1bde5abd80497cU, 0x3cd0a6c63ec665b6U,
  0x3f0c5def3e244bc0U, 0x3e8abe313e97ea25U, 0x3ee5e313bece3819U, 0x3ebd7a763eb1da85U,
  0x3d19af323bbbaa09U, 0xbea1692b3d9f32aeU, 0x3f11cfdabd8a987fU, 0x3acddcde3ebaf66fU,
  0x3ef303dabe5168c4U, 0x3a85d6273e97ea25U, 0xbe938572befc3013U, 0x3ecb1100beea5bb9U,
  0xbd2b5e6a3ca20232U, 0xbebdb4233d6707f3U, 0x3dcc859bbd548a9cU, 0xbe93936ebe55f3a3U,
  0xbe7915863e399010U, 0xbdd52dd6beda7f0aU, 0xbe943c51bed440b1U, 0x3e961c94bec1420bU,
  0xbe20546c3d9d37bfU, 0xbee96ec5be88db81U, 0xbda99b06bd6ee6f2U, 0xbeccec00be7fa797U,
  0xbea7dd51befa7e45U, 0xbf110dd6bef107e5U, 0x3e3b6f8dbecae344U, 0x3ea5c02c3d8a6d81U,
  0xbdb5390a3dc24102U, 0xbed32e4cbe96fd70U, 0x3e7a8028be387f3aU, 0xbe3bcae53ee35200U,
  0x3e30b1a2bee96eb2U, 0xbea507ba3d9af7d6U, 0xbe99fd8cbee51da4U, 0x3eabe2e2bee3b5b0U,
  0x3e4e28ffbd8109baU, 0xbe4438eb3d714f2dU, 0x3ec589d4be059dcfU, 0xbdd7e1e33e7e328dU,
  0xbe66f5533e1d58d9U, 0xbdeb4ae4bec48837U, 0x3d59d04fbec8815aU, 0x3e9a16aabdb71f27U,
  0x3c7a85b33d650060U, 0xbead59eebe18f21fU, 0x3ecd8d82bd9e1bc6U, 0xbdcf42ae3eb8f1dbU,
  0x3d14f4bfbeaca3bbU, 0xbea1111dbe636cfaU, 0x3e738a64bef82fa0U, 0x3ee449af3d9dc4e2U,
  0x3db3dd5a3cdd5353U, 0xbe925c91be420f05U, 0x3ece8c55bd5d8652U, 0xbdcf91643eb4e8b3U,
  0x3e8606553ea678d4U, 0x3e5c66dd3d6778f9U, 0x3e98717fbece00a6U, 0x3eb1d8e33d9dc4e2U,
  0x3e4618c13cc27877U, 0xbe5c5282bd97b7deU, 0x3ecd0398bda44b2fU, 0xbdd022603eb4e8b3U,
  0x3e9351e1be34c9e3U, 0xbdb0c4ba3d6778f9U, 0x3e06a4f8bed91703U, 0x3eb4c3ab3ed0adc7U,
  0x3e1536493be9b383U, 0xbe79c8333cf6382fU, 0x3e3510a03b8604c9U, 0xbe7764a0bde77ef9U,
  0x3dcce69cbe16350aU, 0xbe2759993e04e7b6U, 0x3e9aa6c9becf15e2U, 0x3eb38eb63f0559f5U,
  0x3cb60d923e1e7907U, 0xbeaed233beb3e5c2U, 0x3e8dfb7dbe10c599U, 0xbe2e568cbde77ef9U,
  0x3e4d7effbe8553baU, 0xbe3d36513e926666U, 0x3e1785f1bece0ddaU, 0x3ea77ec9bdf5fb21U,
  0xbd4a68063d61047aU, 0xbec35743be8dff1eU, 0x3e872361bd9d26b9U, 0xbe3e3aef3ecd1fa4U,
  0x3e1698fbbec9c53aU, 0xbe97bb273d85d1dfU, 0x3e79b5e4bed27d32U, 0x3eb3cfeb3e1634a6U,
  0x3d0d1c103cbc9181U, 0xbea422f0be9d69f4U, 0x3eba0911bdec7447U, 0xbdf7e04c3f0d3ce8U,
  0x3e6efdeabe628f18U, 0xbe1298503e0c05f4U, 0xbead93a9bf02c964U, 0x3ed52104be8b7706U,
  0xbe3553c8be9c5f0dU, 0xbea5b298bda722b4U, 0x3eaf2a29bdad924bU, 0xbe0c64193e051fd9U,
  0xbeadd4df3f028fcbU, 0x3d92d88dbe6680c2U, 0xbf33a4e0beec48adU, 0x3ea5272ebf5a1dddU,
  0x3d50431fbe72655dU, 0xbe6586503e082114U, 0x3edc884cbe389b81U, 0xbd8fae033f593eb1U,
  0xbf2532133e9b4afeU, 0xbe21513ebec08ebaU, 0xbf58c214bedc023aU, 0x3e8afb04bf73808cU,
  0x3ceb1674bde9a776U, 0xbe9390de3e082114U, 0x3ea72d34be83bbfbU, 0xbdecaa323f3e00e2U,
  0xbf3eeaacbcd88cdeU, 0xbecbb92fbec0c70bU, 0xbebd301dbeb9c6f3U, 0x3e5e4a83bf1583f2U,
  0xbee7883dbd34c1e6U, 0xbf1ee6f0bee9373dU, 0xbd19e645be23f40dU, 0xbeb7bd74bd83f271U,
  0xbec48acbbf74fa3cU, 0xbf6351ddbf14174bU, 0xbf109c18bef0735fU, 0x3eaf8c9abeaa4a48U,
  0xbee2be713d9dbbf5U, 0xbf2589f6befbd855U, 0xbecedb98bd6c8bbeU, 0xbf19057dbeb0eddeU,
  0xbf143e71beb1e384U, 0xbf0f7316beca2b31U, 0xbf94b555bed68835U, 0x3e7a10f9bf8dffbfU,
  0xbf5687643d582a0aU, 0xbf66c5d5bf5f3e93U, 0xbf78e0373db79f89U, 0xbf6ef8a3bfa119f7U,
  0xbf9d53ffbf7bb80eU, 0xbf8e35e2bf98b3aeU, 0xbfbf508e3fd4f166U, 0xc02403e9bfb5493cU,
  0xbfc720513e6de4dbU, 0xbfa9cab1bfc134a2U, 0xbfdea042406ce683U, 0x4047d924bfd05a82U,
  0xbfc6e955bf952c5eU, 0xbfa026f3bfbb0d6cU, 0x3f6173b83d0b3d63U, 0xbdc0f86ebe8c11c1U,
  0xbfc54e023e85e30bU, 0xbfa545d3bfc0e268U, 0x3fa7401c3f36b33bU, 0x3f27628abebb04c3U,
  0xbfc9468bbfa1da33U, 0xbfa87f87bfc1adbeU, 0xbfbf7ce4becef38fU, 0x3e608dfcbfb6a561U,
  0xbfc73acd3e87a39bU, 0xbfa4e478bfc22b50U, 0xbfe39037bdb50227U, 0xbfae4783bfd8c2ebU,
  0xbfca5c33bfa4f6a6U, 0xbfaa8be4bfc1a0bdU, 0xbfbee352becee114U, 0x3e605da4bfb56febU,
  0xbfc72d853e87a854U, 0xbfa4e28abfc22b50U, 0xbfe3f12fbdb3c1b4U, 0xbfae6503bfd91904U,
  0xbfc9c939bfa51b9fU, 0xbfaaa36dbfc0718aU, 0xbfbf5d16becf060bU, 0x3e60c03ebfb59699U,
  0xbfc760583e879571U, 0xbfa4ea0cbfc2546dU, 0xbfe41fdcbdb3180dU, 0xbfae7400bfd91904U,
  0xbfca3e21bfa4d730U, 0xbfaa771bbfc092efU, 0x3fa7f9673e956bfaU, 0xbe90ad45be751523U,
  0xbfc47daf3e8154c5U, 0xbfa68005bfc0b94cU, 0x3fd98636bfa6dcf8U, 0x3f9c0ebcbec924cfU,
  0xbfc1bf1dbf923f22U, 0xbf9e21d5bfbea1c2U, 0xbfc045aa3fdc7e20U, 0xc01f2aecbfb80185U,
  0xbfc7389f3e661c48U, 0xbfaaf074bfc1aff9U, 0xbfe3fda6c0736dfbU, 0x404db782bfd91904U,
  0xbfcb0e87bf577377U, 0xbf84fa11bfc2d175U, 0xbfc02da23fdc84baU, 0xc01f2635bfb7dad7U,
  0xbfc74a0b3e682d1eU, 0xbfaaa400bfc2546dU, 0xbfe395e4c07370edU, 0x404dbb30bfd841c6U,
  0xbfcabadbbf57352bU, 0xbf84e561bfc2120fU, 0x3eb0bece3ffabce9U, 0xbfcc82febe918255U,
  0xbfc6f2473e65fff3U, 0xbfaaef7abfc1aff9U, 0x3f26d722c0574f99U, 0x403c15b8beb5a338U,
  0xbfca6226bf5835a7U, 0xbf85393cbfc24b43U, 0xbf02c166406d9aecU, 0x3e79318fbe81309bU,
  0xbeea017b3dc17141U, 0xbf2898c2be83b7e4U, 0xbfe1b3a93ca86694U, 0xbfb43f5bbfd61226U,
  0xbfca399bbf6ecb47U, 0xbf8ca2a3bfc1ac24U, 0x3fbc9b01402a14f9U, 0xbf1c27a0be7ff64aU,
  0x3fdf0d42bfe5645cU, 0x3fe57d24be81ca8aU, 0xbfdb09bf3d7d1d6aU, 0xbfac9ba2bfd5e71aU,
  0xbfc7851ebf82d21eU, 0xbf941cdebfc138c2U, 0xbfc027d43fd4e6d6U, 0xc0243131bfb7dad7U,
  0xbfc613e2c06485d6U, 0x403f9759bfc014d8U, 0xbfe4117d3dd15238U, 0xbfa7ccaebfd94410U,
  0xbfc9e32dbf8e2102U, 0xbf9b8e22bfc0ba61U, 0xbfbff9d73fd4fdf0U, 0xc0241e61bfb80185U,
  0x3ff7d513c03f9da0U, 0x403f9cb63f7c1f92U, 0xbfd924be3db195d3U, 0xbfa892a4bfd1b2e5U,
  0xbfcac777bf8e0d38U, 0xbf9b8220bfc2b014U, 0xbfbef1a53fd5c549U, 0xc0238d19bfb78d79U,
  0x409d866e3f3e74aeU, 0x403ff9413f7c1f92U, 0xbfcee664bb0df3c7U, 0xbfac2b45bfd131c0U,
  0xbfcaacc5bf8bc06fU, 0xbf99ff8cbfc2d28aU, 0xbfc041033fd66e44U, 0xc0233f62bfb7dad7U,
  0xbfc6bff8407a0598U, 0x40403c10bfc10b85U, 0xbfe42513bd966083U, 0xbfb0a8cdbfd94410U,
  0xbfca7a1bbf8a2812U, 0xbf98f34ebfc1a1d3U, 0xbfa45605beb96fd2U, 0x3e289116bf997ba1U,
  0xbf843a0ebe89b4a5U, 0xbf48d761bf8e9e13U, 0xbfad63783d0982c2U, 0xbf96daf0bfb47082U,
  0xbfb01e1ebfb65d7eU, 0xbfb4fd64bfa429daU, 0xbf3e7763bee48725U, 0x3e996965bf3be556U,
  0xbe29234abeee2bfcU, 0xbe575105bcd84ceeU, 0xbf88748cbb4fed78U, 0xbf80e31cbf880bc9U,
  0xbf14830abee28b65U, 0xbf1f46d5bede8d9eU, 0x3f2eddfbbf009c48U, 0x3f08aee73f65c17bU,
  0x3f7f8450bf276dafU, 0x3f1090973f51678aU, 0x3e0343283ed1d4eaU, 0xbe259b7c3e59e024U,
  0x3f744c513f880bc9U, 0x3f8a65803f96d3cfU, 0x3f064512beedb267U, 0x3eebb0ec3f0fa060U,
  0x3f0fd7e5bf101d66U, 0x3e83e9ea3ee696c7U, 0x3f41de8d3da759a9U, 0x3df5db223f3daac9U,
  0x3f118d663f6a7aa3U, 0x3f409d463eed318dU, 0x3f305343bec751b6U, 0x3ec869d93eeaab31U,
  0x3ef41717be703833U, 0x3d2a3b6c3f030874U, 0x3ed2d77a3e411814U, 0xbd9861d13e486321U,
  0x3f2ed4cfbc928655U, 0x3e78e98f3ee94febU, 0x3e915cf7beff6294U, 0x3ef0c6cf3efafceaU,
  0x3efd6eedbf118db2U, 0x3e64282cbd76e800U, 0x3ec3f160bed85b74U, 0xbcc010e93f46694bU,
  0x3e1b67a63f909b64U, 0x3f2b71433e5bfc6bU, 0x3f614e5cbec17b48U, 0x3ed253483f37373aU,
  0x3ee2964abe925fddU, 0x3d2778d53e5911f9U, 0x3f2b0bd33e028aebU, 0x3d90cf593f2ddc42U,
  0x3f586fd13d83e9dcU, 0x3ecc48b83f7639a2U, 0x3ea13a19bef119b7U, 0x3ee06fe03e0412bbU,
  0x3f0c9a4cbeef84acU, 0x3e4803e53e5a5ae0U, 0x3f832bdb3dbcecbeU, 0x3e920d633f0a360aU,
  0x3e9b69843f915a4cU, 0x3f3f40f93ebc96b5U, 0x3f0aec2bbee4aec0U, 0x3ee1986a3f11bdeeU,
  0x3f23f1bcbe84a22aU, 0x3e1e85803e3a3c4cU, 0x3f3d19073d9dffb3U, 0x3ddd92063f0989d8U,
  0x3f0044a33f3cf1d3U, 0x3f1a663d3f04c0cfU, 0x3f4a51b9bee43d37U, 0x3ef5cacf3f543a4bU,
  0x3eab8fa5be8104b4U, 0xbd2714a63e6c5784U, 0x3ed58aa63eba99b5U, 0xbc8562433d912cfeU,
  0x3f3512d93ed5833dU, 0x3f06b9ab3f1edcabU, 0x3fbe0c61befc57aeU, 0x3f2be78940367a41U,
  0x3f997705bf10dca1U, 0x3f2332fb3fb5f312U, 0x3f6f24783ee8539fU, 0x3ea423c8400210e3U,
  0x3fe420593fb10320U, 0x3ff1a0b140673559U, 0x3f1fd415beda2453U, 0x3edacd7e3f28b5b1U,
  0x3f03ca7dbef26544U, 0x3e364f253f424eeeU, 0x3c13d6123eada417U, 0xbe86a2a7be487fc7U,
  0x3f3bccb13deef2cfU, 0x3eb748ad3f5e2d14U, 0x3e5b97e2beea2b68U, 0x3ed080193ed3b36eU,
  0x3f666784bece18dfU, 0x3ec0f74d3eeef0a6U, 0x3ee295603e1a957aU, 0xbd819e253eddf076U,
  0x3dd508793f7bfcdbU, 0x3f0e28fa3e0030e1U, 0x3f4e751abf00945cU, 0x3f0ddbbe3f326162U,
  0x3f05ecac3b9e273fU, 0x3be5c7993eeef0a6U, 0x3eaab5d73d0f4111U, 0xbe137248bd8953fbU,
  0x3f2417433f52c0b7U, 0x3f3cb43c3f0ea0cfU, 0x3f80cf3dbe94d2a0U, 0x3ea7455b3f1c045aU,
  0x3f319022bdf38a50U, 0x3e148e8e3f150519U, 0x3f2350be3ef5e4c0U, 0x3e250a2a3f0be485U,
  0x3f162f8a3dbd2d5aU, 0x3e80e1ae3eb93962U, 0x3f95a527bebe8d6dU, 0x3eeb273b3fa00ed9U,
  0x3f216e223a841bbaU, 0x3da1edc23f00246cU, 0x3ec690a63ebd4e73U, 0xbcff47a33ed88eebU,
  0x3f414a173ebbb585U, 0x3f06777d3f4cf153U, 0x3f8d6c67beaeffccU, 0x3ed179b13fa00ed9U,
  0x3efa208c3d8ff017U, 0xbcc6cc283f00246cU, 0x3eaad92b3e9d7a7fU, 0xbdb17a7e3ed88eebU,
  0x3f330ef2bca52a67U, 0x3e8116bd3f4cf153U, 0x3f17ac3cbe9a0aa3U, 0x3e86d7b63f0471dcU,
  0x3fa2c112bf56787eU, 0x3f5530943f087e4aU, 0x3df516ba3c21d952U, 0xbe8da1c43d315998U,
  0x3f0c24573eb70f8dU, 0x3ec921fc3ef2d5bdU, 0x3f143c3abecc621eU, 0x3ec58e273ef6c1cdU,
  0x3ee162a0becea686U, 0x3dc4283a3f400f59U, 0x3eca474d3e52e060U, 0xbda4d2793f3daac9U,
  0x3f1769a63dc93671U, 0x3e8439f63ef691fdU, 0x3f034a7ebed84125U, 0x3ecf57143ef6c1cdU,
  0x3f681c40befba794U, 0x3ed872573f81ea7eU, 0x3f22927f3e72807eU, 0x3d9345083f61fd33U,
  0x3f0f99433f49d999U, 0x3f2b2d673ef691fdU, 0x3f399c1ebee5ee3bU, 0x3ef2423f3f3cf52bU,
  0x3edfb60bbe87d307U, 0x3ceab9663ef0398dU, 0x3f365cbc3e315f95U, 0x3dd730af3f5e4a23U,
  0x3f37e19e3f1091d2U, 0x3f1fca2f3f315883U, 0x3f899e35bec4dd50U, 0x3ee961623f44834cU,
  0x3e2468edbd66a17fU, 0xbe6152db3bf4d88cU, 0x3f1fea723df1ddf6U, 0x3d2f5f003f5e4a23U,
  0x3f84c38dbe48fe18U, 0x3ebf78573f415f7dU, 0x3f878e52bec353e7U, 0x3ee5e13d3f60eba2U,
  0x3ecd1bdebdb1ce04U, 0xbd61662b3dae9d84U, 0x3f70d89b3e04ad92U, 0x3e7396a73f82a6a9U,
  0x3f8716623dfd6fd6U, 0x3f14777d3f60f46cU, 0x3fe0a21bbf1b6a83U, 0x3f5e08a83fbb41b9U,
  0x3f34fb78becbebb5U, 0x3e82cc703f1085efU, 0x400a1895beb5875cU, 0x3f81c9bb408476c5U,
  0x3feaad77403575b2U, 0x40322dcb402f20e5U, 0x3eecadc7bede544dU, 0x3ed328b33ea3f3b7U,
  0x3f93228fbee922f3U, 0x3f0e2e973f9c17e5U, 0x3f6c41d23caac1c8U, 0x3e5f627a3f00753eU,
  0x3efbad113f9d1634U, 0x3f674f1d3ed46ca1U, 0x3fb0b386be8ddc66U, 0x3ec726ca3f8502a8U,
  0x3f08d56ebeeb2a57U, 0x3e3a4c8a3ed163e1U, 0x3f042cce3f38ca1aU, 0x3e6d12663eb594e4U,
  0x3f99cdeebe052cc3U, 0x3f08f9a03f89ba7bU, 0x3f92ad8bbe1f0722U, 0x3e43d0733f7da156U,
  0x3f229521bedb0b89U, 0x3e67523f3ed163e1U, 0x3e23c8983f5099c1U, 0x3dfb62143e70beb2U,
